#ifndef MODEL_H
#define MODEL_H

#ifdef __cplusplus
extern "C" {
#endif

// Model metadata
#define MODEL_INPUT_SIZE 13    // Number of MFCC coefficients
#define MODEL_OUTPUT_SIZE 4   // Number of classification classes
#define MODEL_TENSOR_ARENA_SIZE 65536  // Memory arena for TensorFlow Lite (64KB - sử dụng PSRAM)

// Model data
extern const unsigned char* model_data;
extern const int model_data_len;

// Class labels for ESC-10 dataset
extern const char* class_labels[MODEL_OUTPUT_SIZE];

// Model data array
extern const unsigned char model[];
extern const int model_len;

#ifdef __cplusplus
}
#endif

// Model data definition - include the actual model bytes
#ifdef __cplusplus
extern "C" {
#endif

const unsigned char model[] = {
  0x20, 0x00, 0x00, 0x00, 0x54, 0x46, 0x4c, 0x33, 0x00, 0x00, 0x00, 0x00,
  0x14, 0x00, 0x20, 0x00, 0x1c, 0x00, 0x18, 0x00, 0x14, 0x00, 0x10, 0x00,
  0x0c, 0x00, 0x00, 0x00, 0x08, 0x00, 0x04, 0x00, 0x14, 0x00, 0x00, 0x00,
  0x1c, 0x00, 0x00, 0x00, 0x88, 0x00, 0x00, 0x00, 0xe0, 0x00, 0x00, 0x00,
  0x74, 0x11, 0x00, 0x00, 0x84, 0x11, 0x00, 0x00, 0x2c, 0x30, 0x00, 0x00,
  0x03, 0x00, 0x00, 0x00, 0x01, 0x00, 0x00, 0x00, 0x04, 0x00, 0x00, 0x00,
  0xb2, 0xea, 0xff, 0xff, 0x0c, 0x00, 0x00, 0x00, 0x1c, 0x00, 0x00, 0x00,
  0x38, 0x00, 0x00, 0x00, 0x0f, 0x00, 0x00, 0x00, 0x73, 0x65, 0x72, 0x76,
  0x69, 0x6e, 0x67, 0x5f, 0x64, 0x65, 0x66, 0x61, 0x75, 0x6c, 0x74, 0x00,
  0x01, 0x00, 0x00, 0x00, 0x04, 0x00, 0x00, 0x00, 0x94, 0xff, 0xff, 0xff,
  0x24, 0x00, 0x00, 0x00, 0x04, 0x00, 0x00, 0x00, 0x05, 0x00, 0x00, 0x00,
  0x64, 0x65, 0x6e, 0x73, 0x65, 0x00, 0x00, 0x00, 0x01, 0x00, 0x00, 0x00,
  0x04, 0x00, 0x00, 0x00, 0x32, 0xee, 0xff, 0xff, 0x04, 0x00, 0x00, 0x00,
  0x0d, 0x00, 0x00, 0x00, 0x72, 0x65, 0x73, 0x68, 0x61, 0x70, 0x65, 0x5f,
  0x69, 0x6e, 0x70, 0x75, 0x74, 0x00, 0x00, 0x00, 0x02, 0x00, 0x00, 0x00,
  0x34, 0x00, 0x00, 0x00, 0x04, 0x00, 0x00, 0x00, 0xdc, 0xff, 0xff, 0xff,
  0x27, 0x00, 0x00, 0x00, 0x04, 0x00, 0x00, 0x00, 0x13, 0x00, 0x00, 0x00,
  0x43, 0x4f, 0x4e, 0x56, 0x45, 0x52, 0x53, 0x49, 0x4f, 0x4e, 0x5f, 0x4d,
  0x45, 0x54, 0x41, 0x44, 0x41, 0x54, 0x41, 0x00, 0x08, 0x00, 0x0c, 0x00,
  0x08, 0x00, 0x04, 0x00, 0x08, 0x00, 0x00, 0x00, 0x26, 0x00, 0x00, 0x00,
  0x04, 0x00, 0x00, 0x00, 0x13, 0x00, 0x00, 0x00, 0x6d, 0x69, 0x6e, 0x5f,
  0x72, 0x75, 0x6e, 0x74, 0x69, 0x6d, 0x65, 0x5f, 0x76, 0x65, 0x72, 0x73,
  0x69, 0x6f, 0x6e, 0x00, 0x28, 0x00, 0x00, 0x00, 0x90, 0x10, 0x00, 0x00,
  0x88, 0x10, 0x00, 0x00, 0x74, 0x10, 0x00, 0x00, 0x58, 0x10, 0x00, 0x00,
  0x44, 0x10, 0x00, 0x00, 0x28, 0x10, 0x00, 0x00, 0x0c, 0x10, 0x00, 0x00,
  0xf0, 0x0f, 0x00, 0x00, 0xd4, 0x0f, 0x00, 0x00, 0xbc, 0x0f, 0x00, 0x00,
  0x9c, 0x0f, 0x00, 0x00, 0xcc, 0x0e, 0x00, 0x00, 0x9c, 0x0e, 0x00, 0x00,
  0x0c, 0x0d, 0x00, 0x00, 0xbc, 0x0c, 0x00, 0x00, 0xac, 0x06, 0x00, 0x00,
  0x1c, 0x06, 0x00, 0x00, 0x2c, 0x01, 0x00, 0x00, 0x24, 0x01, 0x00, 0x00,
  0x1c, 0x01, 0x00, 0x00, 0x14, 0x01, 0x00, 0x00, 0x0c, 0x01, 0x00, 0x00,
  0x04, 0x01, 0x00, 0x00, 0xfc, 0x00, 0x00, 0x00, 0xf4, 0x00, 0x00, 0x00,
  0xec, 0x00, 0x00, 0x00, 0xe4, 0x00, 0x00, 0x00, 0xdc, 0x00, 0x00, 0x00,
  0xd4, 0x00, 0x00, 0x00, 0xcc, 0x00, 0x00, 0x00, 0xc4, 0x00, 0x00, 0x00,
  0xbc, 0x00, 0x00, 0x00, 0xb4, 0x00, 0x00, 0x00, 0xac, 0x00, 0x00, 0x00,
  0xa4, 0x00, 0x00, 0x00, 0x9c, 0x00, 0x00, 0x00, 0x94, 0x00, 0x00, 0x00,
  0x8c, 0x00, 0x00, 0x00, 0x6c, 0x00, 0x00, 0x00, 0x04, 0x00, 0x00, 0x00,
  0x4e, 0xef, 0xff, 0xff, 0x04, 0x00, 0x00, 0x00, 0x58, 0x00, 0x00, 0x00,
  0x0c, 0x00, 0x00, 0x00, 0x08, 0x00, 0x0e, 0x00, 0x08, 0x00, 0x04, 0x00,
  0x08, 0x00, 0x00, 0x00, 0x10, 0x00, 0x00, 0x00, 0x28, 0x00, 0x00, 0x00,
  0x00, 0x00, 0x06, 0x00, 0x08, 0x00, 0x04, 0x00, 0x06, 0x00, 0x00, 0x00,
  0x04, 0x00, 0x00, 0x00, 0x01, 0x00, 0x00, 0x00, 0xeb, 0x03, 0x00, 0x00,
  0x00, 0x00, 0x0a, 0x00, 0x10, 0x00, 0x0c, 0x00, 0x08, 0x00, 0x04, 0x00,
  0x0a, 0x00, 0x00, 0x00, 0x02, 0x00, 0x00, 0x00, 0x02, 0x00, 0x00, 0x00,
  0x04, 0x00, 0x00, 0x00, 0x06, 0x00, 0x00, 0x00, 0x32, 0x2e, 0x31, 0x35,
  0x2e, 0x30, 0x00, 0x00, 0xb2, 0xef, 0xff, 0xff, 0x04, 0x00, 0x00, 0x00,
  0x10, 0x00, 0x00, 0x00, 0x31, 0x2e, 0x31, 0x34, 0x2e, 0x30, 0x00, 0x00,
  0x00, 0x00, 0x00, 0x00, 0x00, 0x00, 0x00, 0x00, 0xac, 0xd2, 0xff, 0xff,
  0xb0, 0xd2, 0xff, 0xff, 0xb4, 0xd2, 0xff, 0xff, 0xb8, 0xd2, 0xff, 0xff,
  0xbc, 0xd2, 0xff, 0xff, 0xc0, 0xd2, 0xff, 0xff, 0xc4, 0xd2, 0xff, 0xff,
  0xc8, 0xd2, 0xff, 0xff, 0xcc, 0xd2, 0xff, 0xff, 0xd0, 0xd2, 0xff, 0xff,
  0xd4, 0xd2, 0xff, 0xff, 0xd8, 0xd2, 0xff, 0xff, 0xdc, 0xd2, 0xff, 0xff,
  0xe0, 0xd2, 0xff, 0xff, 0xe4, 0xd2, 0xff, 0xff, 0xe8, 0xd2, 0xff, 0xff,
  0xec, 0xd2, 0xff, 0xff, 0xf0, 0xd2, 0xff, 0xff, 0xf4, 0xd2, 0xff, 0xff,
  0xf8, 0xd2, 0xff, 0xff, 0x1e, 0xf0, 0xff, 0xff, 0x04, 0x00, 0x00, 0x00,
  0xe0, 0x04, 0x00, 0x00, 0xe3, 0xff, 0x2d, 0xa6, 0xc1, 0x27, 0x42, 0x98,
  0xc6, 0x87, 0xf6, 0x86, 0xa8, 0x0b, 0xe3, 0x17, 0x83, 0xe1, 0x77, 0x44,
  0xdc, 0xe9, 0xa0, 0xb5, 0x22, 0xcc, 0x13, 0x40, 0xf7, 0x81, 0xd6, 0xe4,
  0x12, 0x0b, 0xf0, 0xf2, 0x25, 0x64, 0xa4, 0xf2, 0x16, 0x14, 0x26, 0xd7,
  0xee, 0xfc, 0x25, 0x0a, 0x02, 0xb6, 0x3d, 0xc7, 0x1c, 0xdf, 0x3e, 0x0d,
  0xe5, 0xd9, 0xbb, 0x7f, 0x1d, 0x10, 0x0f, 0x4b, 0xe4, 0xf7, 0x13, 0x24,
  0x26, 0xd2, 0x1b, 0xca, 0x74, 0xd6, 0xe9, 0xc8, 0xd5, 0xdf, 0x0f, 0xfb,
  0x33, 0xc1, 0xae, 0xfa, 0xb5, 0xd3, 0xb7, 0x13, 0xe9, 0xc0, 0x81, 0xfa,
  0xfe, 0x45, 0xf0, 0xce, 0x00, 0xd6, 0x4b, 0x12, 0x45, 0xc9, 0xb8, 0xa5,
  0x17, 0x0f, 0x3a, 0xd0, 0xca, 0x23, 0xda, 0xe2, 0xcb, 0xce, 0xdd, 0xee,
  0xc0, 0xf9, 0xd3, 0xd5, 0xc0, 0x05, 0xd3, 0x15, 0xf2, 0xf4, 0x98, 0x3e,
  0xcb, 0x57, 0x00, 0xf7, 0xf7, 0xcb, 0x4a, 0xd6, 0x21, 0xe2, 0x1b, 0xa7,
  0x7c, 0x04, 0x65, 0x02, 0x02, 0xf9, 0xa3, 0xfb, 0xd2, 0x11, 0xe6, 0xea,
  0x8b, 0x7f, 0x9f, 0xf8, 0xf9, 0xe1, 0x11, 0x07, 0xa5, 0xec, 0xcd, 0x9c,
  0x3d, 0xcb, 0xfb, 0xe2, 0x74, 0xfe, 0xa5, 0x73, 0xc3, 0xc8, 0x81, 0xfe,
  0x98, 0xe9, 0xde, 0xce, 0xf4, 0x10, 0xf9, 0xd2, 0x6c, 0x22, 0xc9, 0xd3,
  0xd9, 0x99, 0x0d, 0xeb, 0xfc, 0x42, 0x47, 0x59, 0xdb, 0x0d, 0x5d, 0x9c,
  0xb9, 0x97, 0xea, 0xae, 0x5b, 0xeb, 0xbe, 0xd7, 0x48, 0xe9, 0x42, 0x3c,
  0x94, 0x99, 0xa1, 0xe8, 0xd9, 0x26, 0x1b, 0xc2, 0x0e, 0x67, 0xc0, 0xf7,
  0x51, 0x81, 0x86, 0xa2, 0xbe, 0xdb, 0x3d, 0xe9, 0xdd, 0xfc, 0x51, 0xcb,
  0x3a, 0xd9, 0x9e, 0xc9, 0xf9, 0x03, 0xc2, 0x42, 0x07, 0xb2, 0xd2, 0x64,
  0xfd, 0x7f, 0xeb, 0x10, 0x05, 0x5a, 0x34, 0xca, 0x6a, 0xb7, 0xb1, 0xf0,
  0x68, 0xf9, 0x5c, 0x22, 0x33, 0x0a, 0x32, 0x41, 0xff, 0x65, 0xd7, 0xcd,
  0xb8, 0x41, 0x33, 0x27, 0x4b, 0xc5, 0x29, 0xc7, 0x38, 0x7f, 0x56, 0xf7,
  0x2d, 0x0f, 0x33, 0x0c, 0x07, 0x72, 0xe8, 0x13, 0x9d, 0x58, 0x25, 0x7b,
  0xf0, 0x71, 0x09, 0x08, 0x1b, 0xfa, 0x73, 0xf4, 0x49, 0xb6, 0x60, 0x44,
  0x5c, 0x4f, 0x1c, 0x5e, 0x1a, 0xe8, 0xf4, 0xae, 0x07, 0xfa, 0x0b, 0x1b,
  0xa3, 0x6b, 0x17, 0xdb, 0xc1, 0x48, 0x00, 0xc9, 0xee, 0x38, 0x13, 0x2e,
  0xe4, 0xb9, 0x7f, 0xf4, 0x9c, 0x88, 0x52, 0xf1, 0xd0, 0xcc, 0x3e, 0x14,
  0xf2, 0xe7, 0x92, 0x72, 0x00, 0x92, 0xb2, 0x0f, 0x01, 0xf3, 0x22, 0xf4,
  0xf6, 0x29, 0x0b, 0x06, 0x38, 0x43, 0x38, 0x5c, 0x2f, 0xf0, 0x7f, 0xcb,
  0x2a, 0xed, 0x2a, 0xd5, 0x5d, 0xf1, 0x05, 0xda, 0x7f, 0xd7, 0x15, 0x9a,
  0xf8, 0x0a, 0x05, 0xca, 0x3a, 0x28, 0x0a, 0x38, 0x20, 0x36, 0xf8, 0x02,
  0x19, 0xe8, 0xe9, 0xcf, 0xec, 0xe4, 0x34, 0xcb, 0xdf, 0x33, 0x34, 0x15,
  0x0e, 0x1e, 0xf8, 0x86, 0xc5, 0x10, 0xf4, 0x27, 0x0d, 0x81, 0x33, 0x1d,
  0xf7, 0x12, 0x5a, 0xe8, 0xaa, 0xbb, 0xe5, 0x28, 0x3a, 0xef, 0x1f, 0x2c,
  0x4e, 0x22, 0xe4, 0xc8, 0xa8, 0xfb, 0x09, 0x12, 0x33, 0xd1, 0x12, 0x31,
  0x17, 0x7f, 0x09, 0x12, 0xf4, 0xf6, 0x04, 0xdd, 0xd6, 0xd8, 0x08, 0x54,
  0x30, 0xcb, 0x2a, 0xf6, 0x19, 0xc0, 0xb9, 0xcc, 0xdb, 0xfa, 0x3c, 0x1a,
  0x47, 0x3e, 0x1a, 0x5f, 0xfc, 0x17, 0x2a, 0xad, 0x37, 0x8a, 0x07, 0x52,
  0x1f, 0x41, 0xd7, 0x39, 0x03, 0x0a, 0xc2, 0x19, 0x81, 0xcd, 0xb6, 0x2a,
  0x39, 0x3c, 0x36, 0x76, 0xe8, 0x2d, 0x02, 0x09, 0x20, 0xc5, 0xf1, 0xe0,
  0x14, 0x71, 0xe1, 0xf8, 0x29, 0x14, 0x17, 0x01, 0xd1, 0x1f, 0x04, 0x47,
  0xf7, 0x59, 0xf8, 0x16, 0x20, 0x81, 0xeb, 0xa3, 0xee, 0xcf, 0x08, 0xb4,
  0x3a, 0x12, 0x5e, 0x0d, 0x76, 0x50, 0xea, 0x4d, 0x9b, 0x05, 0xeb, 0x15,
  0xf8, 0x71, 0x5c, 0x54, 0xb9, 0x22, 0x47, 0xb0, 0x00, 0x86, 0xec, 0xed,
  0x47, 0x3c, 0xb1, 0x50, 0x09, 0x15, 0x0d, 0x07, 0xeb, 0xce, 0x7f, 0xf2,
  0xff, 0x0c, 0xf7, 0xfe, 0x43, 0x21, 0xe5, 0x40, 0xee, 0xb3, 0xeb, 0x74,
  0x28, 0xeb, 0xde, 0x33, 0xf5, 0x63, 0xe6, 0x1c, 0x08, 0xec, 0xe0, 0xfa,
  0x58, 0x06, 0x18, 0x0c, 0x32, 0x81, 0xd6, 0x48, 0x40, 0xd2, 0xea, 0x15,
  0x1e, 0x32, 0x0e, 0x13, 0x04, 0x21, 0xa1, 0xfe, 0x30, 0x38, 0x2f, 0xba,
  0xfe, 0x0f, 0x2b, 0xeb, 0xd1, 0x10, 0x06, 0xb6, 0xfe, 0x58, 0xf3, 0xeb,
  0xc8, 0xcd, 0x27, 0x1c, 0x14, 0x0b, 0xd8, 0x4e, 0xdd, 0x36, 0x70, 0x03,
  0x29, 0x81, 0x9a, 0x15, 0x57, 0x14, 0xca, 0x14, 0x2c, 0x20, 0x01, 0xf9,
  0xc3, 0x74, 0xfa, 0xf2, 0xe4, 0x06, 0x14, 0x12, 0xd8, 0x47, 0xd5, 0x30,
  0x41, 0xd6, 0x01, 0xb6, 0xe4, 0x1b, 0x10, 0x0e, 0xf0, 0xc6, 0x98, 0xec,
  0xe8, 0xca, 0x2b, 0x2c, 0x23, 0x0d, 0xe7, 0xeb, 0xec, 0xf7, 0xd3, 0x8e,
  0xea, 0x31, 0x9a, 0x54, 0x23, 0x29, 0x02, 0x07, 0xde, 0x01, 0xc9, 0xfd,
  0x81, 0x1f, 0x08, 0xa3, 0xe8, 0x36, 0xde, 0xf1, 0xa2, 0xcb, 0x0c, 0xeb,
  0xe1, 0x21, 0xa1, 0xe4, 0x4f, 0xd0, 0xd3, 0xd8, 0x96, 0xd3, 0x1f, 0x4a,
  0xc9, 0x7f, 0xcb, 0xdd, 0xd8, 0x4d, 0xac, 0xdc, 0x90, 0xb6, 0x9b, 0xfb,
  0xb2, 0x33, 0xb4, 0x39, 0xc9, 0xc6, 0xeb, 0xd7, 0x1b, 0x91, 0xc4, 0xb5,
  0xe8, 0xcc, 0xf9, 0x81, 0x0b, 0x8f, 0xe4, 0xd8, 0x16, 0x4f, 0x00, 0x43,
  0xe8, 0x32, 0x18, 0x0f, 0xdb, 0x20, 0xd3, 0xd5, 0x21, 0x1c, 0x38, 0x14,
  0x4a, 0xe9, 0x32, 0x0f, 0xba, 0xe4, 0xeb, 0xbb, 0xd4, 0xff, 0xd1, 0x50,
  0xf8, 0x51, 0xf7, 0x23, 0x0c, 0x14, 0xc7, 0xd1, 0x81, 0x10, 0xd4, 0x35,
  0x26, 0x58, 0xe0, 0x39, 0xd2, 0x02, 0xf9, 0xb8, 0xf9, 0xb7, 0xbe, 0xce,
  0x0f, 0x4a, 0x1b, 0xd6, 0xf5, 0xe5, 0x26, 0xfb, 0x0c, 0x01, 0xcd, 0x01,
  0xa9, 0x29, 0x30, 0x2f, 0xd9, 0x1d, 0xf0, 0xde, 0x02, 0x06, 0x21, 0x1c,
  0xe9, 0xfa, 0x09, 0xd1, 0x94, 0x15, 0xc2, 0xc6, 0x18, 0xc9, 0xcd, 0xe3,
  0xa9, 0x81, 0xd4, 0xed, 0xca, 0xaf, 0x1d, 0x1e, 0x2c, 0x07, 0xdd, 0x30,
  0x26, 0x1a, 0xcd, 0x55, 0xec, 0xa1, 0xb8, 0x11, 0xd7, 0xf4, 0x22, 0x1f,
  0x06, 0xdc, 0x1b, 0xf5, 0xd1, 0x27, 0x47, 0xd6, 0x3f, 0xa7, 0x17, 0x01,
  0xf8, 0x0a, 0x10, 0x2e, 0xf5, 0xf7, 0x60, 0x00, 0x81, 0x57, 0xf1, 0x40,
  0x1d, 0xfd, 0xf2, 0xe2, 0xf6, 0xcf, 0xa0, 0x2b, 0x70, 0x29, 0x4e, 0x98,
  0x0a, 0xf3, 0xf6, 0x01, 0xf7, 0xdd, 0xf8, 0x31, 0xa6, 0x71, 0xe8, 0x04,
  0x36, 0x29, 0x0b, 0x15, 0x28, 0xe1, 0xd9, 0xd5, 0x37, 0xc0, 0x7a, 0xde,
  0xe0, 0x3c, 0xff, 0x09, 0x02, 0xf3, 0xf1, 0xff, 0x18, 0x02, 0xc8, 0x7f,
  0xe3, 0xff, 0x0e, 0x37, 0x37, 0x2e, 0x18, 0x12, 0x1e, 0xb8, 0xf1, 0xd4,
  0xe8, 0xf2, 0x34, 0xb0, 0x0c, 0x14, 0x01, 0xd8, 0xec, 0xfe, 0x81, 0xf9,
  0x20, 0xdc, 0x66, 0x5c, 0x2f, 0x0d, 0x30, 0xff, 0xe9, 0x35, 0x28, 0xb3,
  0xfd, 0x27, 0xbf, 0xcb, 0xd7, 0xcb, 0xed, 0x06, 0x06, 0x08, 0x04, 0xfd,
  0x06, 0xf7, 0x95, 0x3a, 0xe3, 0x12, 0x57, 0xb7, 0xee, 0x00, 0xae, 0x10,
  0x0d, 0x1c, 0xcf, 0x81, 0x25, 0x13, 0x04, 0x1d, 0xd0, 0x12, 0xe2, 0xe0,
  0x0e, 0x10, 0xf0, 0xe1, 0xa9, 0x29, 0x08, 0xb5, 0x50, 0x9d, 0x24, 0xae,
  0x19, 0x23, 0xf6, 0x24, 0x0a, 0x1f, 0xaa, 0xec, 0x98, 0xb7, 0xcc, 0x00,
  0xe5, 0x0d, 0x13, 0xe7, 0x61, 0x81, 0x01, 0xbb, 0xe7, 0xe2, 0xfd, 0xce,
  0x14, 0xdf, 0x06, 0xe7, 0x15, 0x62, 0xca, 0xf6, 0x8b, 0xe5, 0xb0, 0xf7,
  0x18, 0xf9, 0xe5, 0xef, 0xed, 0x62, 0x34, 0x2c, 0xd4, 0x21, 0x28, 0x3e,
  0x66, 0xbe, 0x45, 0x09, 0x22, 0x12, 0x4d, 0xf9, 0x33, 0xd8, 0x0c, 0xfb,
  0xeb, 0xf1, 0xc1, 0xf5, 0x32, 0x21, 0xce, 0x70, 0x35, 0x72, 0x24, 0x13,
  0x52, 0x5f, 0x11, 0x81, 0x14, 0xd4, 0xc6, 0x45, 0x4c, 0x2f, 0xec, 0x81,
  0x3b, 0x0c, 0x2e, 0xa3, 0xc5, 0xcf, 0xe0, 0xdc, 0x1d, 0xe0, 0x21, 0x24,
  0xa9, 0xf7, 0x35, 0x0e, 0x91, 0xbf, 0x1f, 0xd7, 0xf5, 0x5d, 0x17, 0xd9,
  0x53, 0xba, 0x04, 0x07, 0x42, 0xb9, 0xb6, 0x09, 0xe7, 0xd1, 0xb4, 0x58,
  0xf1, 0xd5, 0x03, 0x81, 0x96, 0x35, 0xe7, 0x37, 0xd9, 0xce, 0xdc, 0xc3,
  0x1e, 0xb9, 0xee, 0x9f, 0x9c, 0x95, 0x39, 0xf1, 0x36, 0x18, 0xe2, 0xcf,
  0x87, 0x3c, 0xe4, 0x9e, 0xe8, 0x81, 0x83, 0xdc, 0xd7, 0x71, 0xe8, 0x26,
  0x11, 0x08, 0xea, 0xe9, 0x79, 0xd2, 0xf8, 0xf0, 0x5e, 0xd4, 0x2f, 0x29,
  0x32, 0xb3, 0x3f, 0xde, 0x02, 0x75, 0xc2, 0x34, 0xf1, 0x7c, 0xff, 0x35,
  0x24, 0x16, 0xb1, 0x06, 0x34, 0xbe, 0x60, 0xe3, 0x1d, 0xe3, 0x7f, 0xf8,
  0x4a, 0x1c, 0x30, 0xc2, 0xf3, 0x36, 0x81, 0xac, 0x32, 0xf8, 0xe9, 0xb3,
  0x47, 0xa8, 0xfa, 0xc3, 0xde, 0xfd, 0xf8, 0xaa, 0xbc, 0xf9, 0x23, 0xfb,
  0x0b, 0x3a, 0xb7, 0xe6, 0xd4, 0x5a, 0xfa, 0x0d, 0xd3, 0xf9, 0x07, 0x56,
  0x39, 0xe7, 0xda, 0xe2, 0x0a, 0xf5, 0xff, 0xff, 0x04, 0x00, 0x00, 0x00,
  0x80, 0x00, 0x00, 0x00, 0xce, 0xff, 0xff, 0xff, 0xe1, 0xff, 0xff, 0xff,
  0x26, 0x00, 0x00, 0x00, 0x01, 0x00, 0x00, 0x00, 0xf8, 0xff, 0xff, 0xff,
  0xf1, 0xff, 0xff, 0xff, 0x08, 0x00, 0x00, 0x00, 0xee, 0xff, 0xff, 0xff,
  0x01, 0x00, 0x00, 0x00, 0x19, 0x00, 0x00, 0x00, 0xbb, 0xff, 0xff, 0xff,
  0x33, 0x00, 0x00, 0x00, 0xde, 0xff, 0xff, 0xff, 0xcd, 0xff, 0xff, 0xff,
  0xd7, 0xff, 0xff, 0xff, 0xf1, 0xff, 0xff, 0xff, 0x86, 0x00, 0x00, 0x00,
  0xf1, 0xff, 0xff, 0xff, 0xa4, 0xff, 0xff, 0xff, 0x1a, 0x00, 0x00, 0x00,
  0xca, 0xff, 0xff, 0xff, 0x3c, 0x00, 0x00, 0x00, 0x73, 0x00, 0x00, 0x00,
  0x12, 0x00, 0x00, 0x00, 0x81, 0x00, 0x00, 0x00, 0xbb, 0xff, 0xff, 0xff,
  0x3d, 0x00, 0x00, 0x00, 0x4f, 0x00, 0x00, 0x00, 0xe9, 0xff, 0xff, 0xff,
  0x17, 0x00, 0x00, 0x00, 0x8c, 0xff, 0xff, 0xff, 0x15, 0x00, 0x00, 0x00,
  0x96, 0xf5, 0xff, 0xff, 0x04, 0x00, 0x00, 0x00, 0x00, 0x06, 0x00, 0x00,
  0x16, 0x1d, 0xd3, 0x1e, 0x16, 0xdf, 0x15, 0xe1, 0x1b, 0x0c, 0x08, 0xdd,
  0x30, 0xe3, 0xf8, 0x9a, 0xa9, 0xe0, 0xdc, 0xdc, 0x16, 0xb6, 0xf9, 0xef,
  0x1a, 0xaa, 0xda, 0xaf, 0x4b, 0xdc, 0xbb, 0x01, 0x33, 0xeb, 0xac, 0xeb,
  0xf4, 0x05, 0xd4, 0xe9, 0xfb, 0x27, 0xdb, 0xdb, 0x50, 0xd2, 0x18, 0xae,
  0xe3, 0xe5, 0xc3, 0xb0, 0x03, 0xe0, 0x0d, 0x81, 0x36, 0xdc, 0xca, 0x0f,
  0x30, 0xbb, 0x19, 0x0a, 0xcf, 0xe6, 0xa8, 0x2e, 0x06, 0xe9, 0x02, 0xe2,
  0xcb, 0xc0, 0xcb, 0xc5, 0xe8, 0x20, 0xaa, 0xde, 0xca, 0xda, 0x07, 0x14,
  0x10, 0xd2, 0x2a, 0xce, 0xc7, 0xe7, 0x2e, 0x11, 0x9c, 0xe9, 0x36, 0x12,
  0x1b, 0xc5, 0xbb, 0xcc, 0xd9, 0xf2, 0x0b, 0xbf, 0x08, 0xd9, 0xe4, 0xbf,
  0xf1, 0x02, 0x1b, 0x25, 0xf7, 0x1e, 0x08, 0xbe, 0x5c, 0xf1, 0xa2, 0x0f,
  0xa9, 0x05, 0xfa, 0x0a, 0x2a, 0xcf, 0xbe, 0x0b, 0xdb, 0xfb, 0x81, 0xad,
  0xf4, 0xe0, 0xc5, 0xb5, 0x11, 0xe6, 0xea, 0xd4, 0x26, 0x0a, 0x13, 0xfa,
  0xef, 0x18, 0xe7, 0xc9, 0x44, 0xda, 0x1a, 0xf7, 0xef, 0x0b, 0xe7, 0xe5,
  0x25, 0x0d, 0x35, 0xfa, 0x0f, 0xfe, 0xac, 0xe5, 0xcc, 0xf3, 0xc0, 0xc9,
  0x30, 0xaa, 0x2d, 0x0f, 0xf2, 0xd1, 0xec, 0xf0, 0xfe, 0xe1, 0x28, 0xcb,
  0xd2, 0xbb, 0xdc, 0x1a, 0xc8, 0x30, 0x0d, 0xf9, 0x12, 0xed, 0xda, 0xff,
  0xc7, 0x02, 0x02, 0x26, 0x0c, 0xde, 0x22, 0x93, 0xe7, 0xac, 0xe0, 0xe2,
  0xf8, 0xf5, 0xd6, 0xc0, 0xd4, 0x0d, 0xde, 0xa1, 0xab, 0xe7, 0x42, 0x2e,
  0xf6, 0x16, 0xb2, 0x53, 0xf1, 0xda, 0xec, 0xf5, 0xe2, 0x18, 0xef, 0x24,
  0xef, 0xe5, 0x15, 0x81, 0xe7, 0xc4, 0x16, 0x06, 0xb1, 0xdb, 0xc5, 0x00,
  0xcf, 0xd5, 0xcd, 0x9b, 0xa5, 0x1c, 0x4c, 0x17, 0xed, 0x00, 0xe5, 0xf8,
  0xe1, 0xd2, 0x11, 0x02, 0xa2, 0x05, 0x08, 0x0f, 0xe3, 0xfa, 0x23, 0xa5,
  0xbe, 0xb4, 0xce, 0xee, 0x01, 0x32, 0xf2, 0xf0, 0xc6, 0xe2, 0xd7, 0x81,
  0xf0, 0xf6, 0xfa, 0x1b, 0xc8, 0x1e, 0xef, 0x12, 0xde, 0xe3, 0x18, 0xfc,
  0xdf, 0xe4, 0xa9, 0x04, 0xe5, 0x48, 0x08, 0xc8, 0xed, 0xaf, 0xfb, 0xf2,
  0x17, 0x22, 0xac, 0xf1, 0xb1, 0x10, 0xb4, 0x05, 0xfd, 0xe4, 0xf5, 0x26,
  0xe2, 0xe0, 0x08, 0x82, 0x0c, 0xf0, 0xe0, 0x1a, 0xe9, 0xd3, 0x0b, 0x0c,
  0x92, 0xcc, 0xf7, 0xf0, 0x32, 0xc6, 0x47, 0xfc, 0x11, 0xf7, 0xc2, 0xda,
  0xda, 0x1d, 0xf0, 0x0a, 0x88, 0xcf, 0xef, 0x36, 0xfc, 0xde, 0x00, 0xe6,
  0xc9, 0xcf, 0xf8, 0xfb, 0xfa, 0xec, 0xe9, 0xcb, 0xde, 0x0e, 0x31, 0xce,
  0xf4, 0xb6, 0x10, 0xe6, 0xfe, 0xb5, 0xc1, 0xe2, 0xc0, 0xd0, 0xb8, 0xec,
  0xa6, 0xd9, 0xe7, 0x0e, 0xe5, 0xf6, 0x10, 0x81, 0x0d, 0x91, 0x09, 0x10,
  0xb3, 0xf6, 0x28, 0x16, 0xf9, 0xc7, 0xde, 0xf0, 0x2b, 0x04, 0xe1, 0x34,
  0xb5, 0xc4, 0x0f, 0xca, 0xd3, 0xbc, 0xd5, 0xea, 0xf3, 0xf3, 0x0c, 0xef,
  0x38, 0xd1, 0xf6, 0xb8, 0x9b, 0x16, 0x07, 0xe4, 0xad, 0x0c, 0xd4, 0xd6,
  0xf2, 0xe1, 0xe3, 0xcc, 0xda, 0x00, 0xee, 0x13, 0xdb, 0xd5, 0xc7, 0xe8,
  0xfb, 0xff, 0x94, 0x0f, 0xe2, 0xc6, 0xd2, 0xbf, 0xea, 0xf7, 0x09, 0xc1,
  0x81, 0x05, 0xff, 0xf3, 0xc0, 0xf2, 0xa5, 0xe0, 0xfe, 0xd0, 0xcc, 0xd5,
  0x02, 0x08, 0xe5, 0x21, 0xdf, 0xb2, 0xe0, 0xc8, 0x1a, 0x0e, 0x48, 0xf2,
  0xd7, 0x11, 0xd5, 0x1d, 0x46, 0xf9, 0xd2, 0xef, 0xf7, 0xcb, 0x1b, 0x2d,
  0x3a, 0x06, 0xb3, 0xea, 0x1c, 0x65, 0x5c, 0x30, 0x2c, 0xf1, 0x17, 0x09,
  0x1d, 0xf1, 0xfe, 0xfc, 0xda, 0x1f, 0xe8, 0x00, 0x3c, 0xf7, 0xa3, 0xd7,
  0xcf, 0x00, 0xdf, 0xf7, 0x46, 0xde, 0x22, 0x05, 0x15, 0x04, 0xbc, 0xee,
  0x3f, 0x7f, 0x3c, 0x20, 0x44, 0xea, 0x00, 0xf9, 0x1b, 0xed, 0x16, 0x05,
  0xbe, 0xfb, 0xdc, 0xfb, 0x45, 0xf7, 0xac, 0xd9, 0xd0, 0xfd, 0xe5, 0xff,
  0x03, 0x0e, 0x06, 0x0f, 0x33, 0x0a, 0xc6, 0xfd, 0x3e, 0x35, 0x55, 0x18,
  0x2a, 0xe2, 0x12, 0x09, 0x2b, 0xf1, 0x17, 0xfb, 0xdc, 0x2f, 0xf3, 0xfc,
  0x70, 0x15, 0xa3, 0xcd, 0xdb, 0xea, 0xfb, 0xe4, 0x46, 0xef, 0x28, 0x5f,
  0xc0, 0xc5, 0x2e, 0xd2, 0xf3, 0xf8, 0x52, 0xd0, 0x28, 0xbe, 0xa1, 0xf2,
  0x05, 0xf0, 0xf4, 0xee, 0xea, 0xe7, 0xbd, 0x22, 0x3e, 0xc2, 0xeb, 0xa4,
  0x09, 0x01, 0xdd, 0xc0, 0xb0, 0xf1, 0xeb, 0xfc, 0xcc, 0xa2, 0x1c, 0xf8,
  0xfe, 0x3f, 0x20, 0x06, 0x23, 0xcd, 0xd4, 0xf9, 0x23, 0x22, 0x1e, 0xf6,
  0x10, 0x0d, 0xa2, 0xfd, 0x26, 0xd1, 0xfe, 0xb1, 0xf9, 0xd7, 0xd5, 0xf9,
  0x14, 0x0b, 0xbf, 0x09, 0x98, 0xcc, 0x30, 0xe2, 0xcc, 0x39, 0xf0, 0xf1,
  0xf1, 0xcf, 0x98, 0xdb, 0xdd, 0x12, 0xb9, 0xfa, 0xd3, 0xf5, 0xfa, 0x0a,
  0xee, 0xc2, 0x05, 0x81, 0xdf, 0xf8, 0xfd, 0xf7, 0xb5, 0xdd, 0xe0, 0x16,
  0xda, 0xa2, 0xf7, 0xc3, 0xe6, 0xcb, 0x36, 0xbd, 0x26, 0xe5, 0xdd, 0xba,
  0xe6, 0xbc, 0xd5, 0x03, 0xe1, 0xd5, 0xc2, 0x17, 0x01, 0xa2, 0x08, 0xbe,
  0xda, 0xfb, 0xdf, 0xf6, 0xe6, 0x1a, 0x8c, 0xd3, 0xf4, 0x8b, 0xdf, 0x09,
  0xf0, 0xfa, 0xde, 0xce, 0xf0, 0x67, 0xe0, 0xdc, 0xdf, 0xaf, 0xb9, 0xf1,
  0xdc, 0xef, 0xd7, 0x2d, 0xc9, 0x8e, 0xf5, 0xc3, 0xf4, 0xf5, 0xe5, 0x03,
  0xd9, 0xd4, 0xaf, 0x8f, 0xca, 0xbd, 0xd6, 0x00, 0xdc, 0xdd, 0x08, 0xed,
  0x15, 0xe4, 0xd0, 0xf7, 0xd7, 0xcb, 0xe1, 0x0b, 0x26, 0xb4, 0xc3, 0xf0,
  0xbc, 0xbc, 0xed, 0x9d, 0x13, 0xf1, 0x04, 0xb2, 0x0b, 0xc2, 0xb4, 0x81,
  0x1b, 0x09, 0xff, 0x14, 0xfa, 0xaa, 0xb8, 0x05, 0xc2, 0xf4, 0xea, 0x03,
  0xcb, 0x9a, 0xd9, 0xe7, 0xee, 0xe2, 0xa4, 0xf8, 0xd7, 0x31, 0x3d, 0xd1,
  0x49, 0xd7, 0x6f, 0x0f, 0xfd, 0x0b, 0xe7, 0x05, 0x04, 0xfc, 0x14, 0x1d,
  0xf5, 0xcc, 0xd3, 0x04, 0xdd, 0x0b, 0xec, 0x0c, 0xbc, 0x9d, 0xfc, 0xee,
  0x2e, 0xed, 0x97, 0xfb, 0x03, 0xf0, 0x5a, 0xac, 0x47, 0xeb, 0x3a, 0xfb,
  0xf1, 0x00, 0xf1, 0xfc, 0x14, 0x01, 0x18, 0x27, 0xf8, 0xd1, 0xc3, 0x00,
  0xba, 0x06, 0xf4, 0x10, 0xb3, 0x81, 0xeb, 0xfb, 0x13, 0xfc, 0xd2, 0xee,
  0xfa, 0x0c, 0x45, 0xb8, 0x14, 0xd9, 0x33, 0x07, 0xd2, 0x00, 0xf5, 0x1f,
  0x11, 0xf4, 0xbb, 0xfb, 0xc5, 0x0e, 0x04, 0xbc, 0x04, 0xbb, 0xdf, 0xf7,
  0xd9, 0x1e, 0xc9, 0x0e, 0xb9, 0xe7, 0xdb, 0xfc, 0xef, 0xe2, 0x02, 0xd1,
  0xe0, 0xe7, 0x02, 0xee, 0x9a, 0xb8, 0xdf, 0xec, 0x09, 0xf7, 0xc7, 0x0c,
  0xeb, 0x09, 0xcf, 0xbd, 0x01, 0xac, 0xd1, 0xdf, 0x14, 0xfb, 0x11, 0xf6,
  0x81, 0x01, 0xcd, 0xe1, 0xd4, 0xb9, 0x47, 0xf8, 0xb7, 0xf8, 0xef, 0xed,
  0xd2, 0xd9, 0x09, 0x15, 0xe6, 0xfa, 0xf0, 0xd9, 0xcc, 0xfc, 0xeb, 0xce,
  0xe7, 0xd4, 0xac, 0xe3, 0x0a, 0x15, 0xed, 0xe7, 0xa3, 0xc3, 0xd0, 0xb7,
  0xcf, 0xf4, 0x23, 0xcb, 0xd9, 0x0c, 0xe3, 0x51, 0xb2, 0xc1, 0xf3, 0xe6,
  0xdc, 0x0d, 0x09, 0xee, 0xe9, 0x25, 0x60, 0xf9, 0x3b, 0xbb, 0x1c, 0xbb,
  0xf6, 0x30, 0x1d, 0x03, 0x81, 0x2e, 0xcf, 0xff, 0xef, 0xf0, 0xbf, 0xf7,
  0xd4, 0x04, 0xdd, 0xf3, 0xf3, 0xee, 0x53, 0x09, 0xf3, 0xf9, 0x07, 0xef,
  0xba, 0x49, 0x63, 0xf7, 0x32, 0xbb, 0xee, 0xbe, 0xbf, 0x29, 0x16, 0x07,
  0x8a, 0xf2, 0xfa, 0xf9, 0x25, 0xd8, 0xdd, 0xce, 0x8e, 0x08, 0xd6, 0xf5,
  0xe8, 0xde, 0x10, 0xd7, 0xe9, 0x28, 0xef, 0x09, 0xfb, 0x12, 0x55, 0xe8,
  0x42, 0xb7, 0xe6, 0xd7, 0x40, 0xeb, 0x00, 0x17, 0xb8, 0x19, 0xb4, 0xfe,
  0x05, 0xf8, 0xbd, 0xe7, 0xdf, 0x05, 0xd4, 0xe5, 0xf8, 0x05, 0xfe, 0x14,
  0x32, 0xb8, 0x0f, 0xa9, 0xb2, 0xcf, 0x2f, 0x9a, 0xef, 0xdc, 0x1a, 0xbd,
  0x39, 0xa3, 0x9d, 0xca, 0xd8, 0xb1, 0x61, 0xe6, 0x04, 0x12, 0xbe, 0x00,
  0x81, 0xcb, 0x25, 0xc3, 0x3f, 0x8b, 0x53, 0x9a, 0xf7, 0xa5, 0xfa, 0x83,
  0xcc, 0x0a, 0x06, 0x9e, 0xd4, 0x07, 0xe5, 0xe5, 0x0f, 0x9b, 0xc5, 0x04,
  0xc1, 0xb9, 0x12, 0xc8, 0xed, 0xf8, 0xc9, 0xc4, 0xa3, 0xdd, 0x0d, 0xcf,
  0x16, 0xb9, 0xde, 0x26, 0x44, 0xbb, 0xec, 0xaf, 0xad, 0x06, 0x24, 0xaf,
  0xcf, 0x2f, 0x39, 0xfc, 0xfe, 0xa8, 0xe6, 0xeb, 0xae, 0xde, 0x12, 0x12,
  0x01, 0x1a, 0xee, 0xf2, 0xb4, 0xe2, 0x28, 0xc0, 0xcc, 0xb9, 0x1d, 0x29,
  0xdd, 0xe5, 0x0e, 0xee, 0xef, 0xf2, 0xf2, 0xf5, 0xe4, 0xf5, 0xee, 0xe7,
  0xfd, 0xb4, 0xd1, 0xed, 0xdf, 0xf7, 0xc4, 0xfb, 0xec, 0xa0, 0xfd, 0xa3,
  0xf5, 0xe7, 0x13, 0xe9, 0xe7, 0xd9, 0xa8, 0xbe, 0xc3, 0xe3, 0xf3, 0xf6,
  0xf9, 0xd4, 0xf4, 0xfa, 0xf3, 0x67, 0xdd, 0x01, 0xe2, 0xc8, 0xdb, 0x0a,
  0xc3, 0xb3, 0x4b, 0xec, 0x20, 0xbb, 0xe3, 0xc0, 0xea, 0x17, 0xd5, 0x20,
  0x9a, 0xd6, 0xde, 0xec, 0xc8, 0xf0, 0xe5, 0xf1, 0xd1, 0x00, 0xfe, 0x07,
  0xe9, 0xd3, 0xd2, 0xf6, 0xbd, 0xd8, 0xdb, 0x04, 0xdf, 0xef, 0xbb, 0x30,
  0xe0, 0xc6, 0xd4, 0xd9, 0xdb, 0x05, 0xe2, 0xe5, 0x0f, 0xbf, 0x81, 0xdf,
  0xfc, 0x81, 0xd0, 0xcc, 0xcc, 0xa4, 0xc0, 0x91, 0xbb, 0x6d, 0xd6, 0x4b,
  0x29, 0xb6, 0xbb, 0x0b, 0xd3, 0x0e, 0x63, 0xd0, 0x26, 0xcd, 0xbb, 0xd0,
  0xd0, 0x47, 0xdb, 0x8f, 0xd3, 0x15, 0xdf, 0x18, 0xb2, 0xc4, 0xfb, 0x2f,
  0x24, 0xfa, 0xce, 0x88, 0x96, 0xf2, 0xde, 0x00, 0xa8, 0xf1, 0xc2, 0xcb,
  0xa6, 0xf7, 0xc8, 0x06, 0xec, 0x20, 0x8b, 0xe3, 0xae, 0xf0, 0x08, 0x97,
  0xab, 0xe2, 0xe4, 0xf8, 0xd9, 0x29, 0x35, 0xa7, 0x10, 0xe8, 0x02, 0xef,
  0x45, 0xae, 0xd6, 0xc3, 0x01, 0xf7, 0xd7, 0xe5, 0xa1, 0x28, 0x3f, 0x14,
  0xdb, 0xc8, 0xe9, 0xe0, 0xbf, 0xd5, 0x3d, 0xfd, 0xe1, 0x91, 0x1a, 0xc3,
  0xe9, 0xe3, 0xf1, 0x07, 0xf0, 0xc4, 0x43, 0xe7, 0x67, 0x0e, 0xd7, 0xe0,
  0x24, 0xfa, 0x00, 0xbe, 0xa3, 0x34, 0x16, 0xff, 0x11, 0xf5, 0xe6, 0xf2,
  0xf7, 0x29, 0xd8, 0xfd, 0xfb, 0x0d, 0x19, 0xf3, 0x17, 0xeb, 0x01, 0x01,
  0xe3, 0x07, 0xfa, 0xdd, 0x6b, 0xd8, 0xef, 0x0a, 0xd5, 0xfa, 0xf5, 0x9c,
  0x9c, 0x1f, 0xfc, 0xff, 0x36, 0x04, 0xf7, 0x04, 0x18, 0x20, 0xc8, 0xf9,
  0x10, 0x11, 0x2b, 0x00, 0xf3, 0xda, 0x1f, 0xdd, 0xf5, 0x19, 0x57, 0xe0,
  0x7f, 0xe4, 0xb7, 0xe7, 0xcb, 0xf5, 0x12, 0xc8, 0x9c, 0x03, 0x1a, 0xf6,
  0xe1, 0xe2, 0xd9, 0xe4, 0xf8, 0xfd, 0xdb, 0x08, 0xe8, 0x28, 0xec, 0x2c,
  0xf1, 0xf6, 0xf8, 0xe8, 0xc9, 0x15, 0x4c, 0x23, 0x01, 0x50, 0x05, 0x12,
  0xe4, 0xfb, 0xee, 0x0c, 0xdb, 0xb0, 0x74, 0x05, 0x41, 0xf0, 0xd6, 0xa4,
  0xfa, 0x1a, 0xc8, 0x1b, 0xe7, 0xe8, 0xcd, 0x0b, 0x01, 0x0b, 0xe8, 0xea,
  0xc8, 0x23, 0x27, 0x15, 0xec, 0xd0, 0xfe, 0xfe, 0x0c, 0x00, 0xd6, 0xf7,
  0xc4, 0xda, 0x43, 0xf1, 0xee, 0xfd, 0xd5, 0xb4, 0xce, 0x14, 0xc5, 0xee,
  0xef, 0xf0, 0x9a, 0xf0, 0xff, 0x06, 0xe3, 0xef, 0xc2, 0x06, 0x3b, 0x1c,
  0x35, 0x81, 0x0c, 0xdc, 0xec, 0xf1, 0x0b, 0x0f, 0xb0, 0xe0, 0xef, 0x2e,
  0x41, 0xfe, 0xc2, 0xc3, 0xca, 0x0f, 0xf2, 0xf3, 0x03, 0xfa, 0xd2, 0xcd,
  0xa2, 0xfb, 0xff, 0xff, 0x04, 0x00, 0x00, 0x00, 0x40, 0x00, 0x00, 0x00,
  0x52, 0xff, 0xff, 0xff, 0xde, 0x00, 0x00, 0x00, 0x58, 0xff, 0xff, 0xff,
  0x9a, 0xfe, 0xff, 0xff, 0x70, 0xff, 0xff, 0xff, 0x3c, 0xfe, 0xff, 0xff,
  0xc1, 0xfe, 0xff, 0xff, 0xbf, 0x01, 0x00, 0x00, 0x44, 0x01, 0x00, 0x00,
  0x9e, 0xff, 0xff, 0xff, 0x69, 0x00, 0x00, 0x00, 0x13, 0xff, 0xff, 0xff,
  0x6d, 0x01, 0x00, 0x00, 0xb3, 0xfd, 0xff, 0xff, 0xb5, 0xfd, 0xff, 0xff,
  0xd1, 0x01, 0x00, 0x00, 0xee, 0xfb, 0xff, 0xff, 0x04, 0x00, 0x00, 0x00,
  0x80, 0x01, 0x00, 0x00, 0x1c, 0x0a, 0xfa, 0xd1, 0xf7, 0x04, 0xbe, 0x72,
  0xbe, 0xe8, 0x19, 0x1a, 0x7f, 0x4f, 0x19, 0x22, 0x36, 0x0d, 0x02, 0xb6,
  0xc9, 0x0c, 0xb0, 0xd8, 0xd9, 0xca, 0x15, 0x20, 0xc8, 0x3c, 0x29, 0x79,
  0xe7, 0xc8, 0xae, 0xd7, 0xb4, 0x11, 0xe2, 0xb9, 0xe5, 0xb5, 0xff, 0x65,
  0x2b, 0xf5, 0xf8, 0x79, 0x21, 0x36, 0x71, 0xe3, 0xea, 0xb5, 0x21, 0xee,
  0xfa, 0xb8, 0x35, 0xf4, 0x6d, 0x6d, 0xa6, 0xc2, 0x1a, 0xeb, 0x2c, 0x27,
  0x81, 0xb5, 0xd1, 0x28, 0xfd, 0x6c, 0xef, 0xc1, 0xc4, 0x64, 0xf6, 0x1a,
  0x1e, 0x3a, 0x64, 0xa2, 0xe8, 0xca, 0xb9, 0x0d, 0xfa, 0x6b, 0x05, 0xb3,
  0x26, 0xdb, 0xb5, 0xb1, 0x0b, 0x1c, 0x45, 0x17, 0xeb, 0x03, 0x1d, 0xd8,
  0xf4, 0x57, 0x1a, 0x2c, 0xb5, 0xe6, 0x22, 0xef, 0x39, 0x3c, 0x17, 0x4b,
  0xb5, 0x05, 0x3e, 0xe4, 0xe5, 0x2e, 0x14, 0x08, 0xc7, 0xb8, 0xf7, 0xf1,
  0x0f, 0xfa, 0x33, 0x3c, 0xda, 0xf3, 0x4a, 0xc8, 0xe2, 0x7f, 0x2d, 0xef,
  0xc6, 0x12, 0xf4, 0x00, 0xf5, 0xdd, 0x0c, 0xd0, 0x2f, 0xe8, 0x36, 0xf4,
  0xf9, 0xea, 0xdd, 0x16, 0xe6, 0xd3, 0x36, 0xf9, 0xfe, 0xde, 0xe2, 0xf8,
  0xa7, 0x0e, 0x1d, 0x3d, 0xbd, 0xbf, 0xa8, 0xc2, 0xdc, 0xc9, 0x14, 0xee,
  0xb6, 0xf8, 0x03, 0x0e, 0x1e, 0xaf, 0x81, 0xf5, 0xde, 0xc8, 0xc1, 0x20,
  0x39, 0x1c, 0x38, 0xc0, 0x33, 0x67, 0x4b, 0x3b, 0xa0, 0xfd, 0x07, 0xa8,
  0x8e, 0xe3, 0x02, 0x33, 0xbe, 0xa8, 0xb9, 0x11, 0x3a, 0x5c, 0x3c, 0x40,
  0x96, 0x29, 0x48, 0xa3, 0xa7, 0x7f, 0x42, 0x19, 0x98, 0xf3, 0xc0, 0xf2,
  0x6f, 0x51, 0xa8, 0xf8, 0xe1, 0xee, 0x86, 0x85, 0xb9, 0x0c, 0x58, 0x7a,
  0x96, 0x1e, 0x10, 0x14, 0x32, 0x10, 0xe6, 0x0f, 0x00, 0xa4, 0x21, 0x3f,
  0xd0, 0x05, 0xe7, 0xde, 0xe9, 0x3c, 0xe6, 0x33, 0xeb, 0x2f, 0x3f, 0x98,
  0xaf, 0xad, 0x57, 0x37, 0xd0, 0x21, 0x00, 0xee, 0x61, 0x56, 0x8f, 0xe9,
  0x0b, 0xe4, 0xff, 0x04, 0x11, 0xba, 0x4b, 0x44, 0xda, 0x81, 0xe5, 0xa1,
  0x37, 0x1d, 0x98, 0x23, 0xda, 0x1a, 0xf8, 0x8c, 0x43, 0x2d, 0xae, 0xb1,
  0x1f, 0xae, 0x04, 0xea, 0xea, 0xfa, 0x55, 0xf7, 0xfe, 0xdc, 0xca, 0xe2,
  0x08, 0xe1, 0x9b, 0x81, 0x24, 0xc3, 0x06, 0x02, 0xd2, 0xe5, 0x4e, 0xfa,
  0xe6, 0xbd, 0xd1, 0xc0, 0x67, 0x18, 0xdb, 0xe8, 0x43, 0x88, 0x07, 0x3d,
  0xcc, 0x25, 0x5d, 0xfb, 0xee, 0xe7, 0xaf, 0xd9, 0xe0, 0xe8, 0xe7, 0x50,
  0xee, 0x07, 0x04, 0x7f, 0x6f, 0xfc, 0x62, 0x64, 0xd9, 0x00, 0xca, 0xca,
  0xf4, 0xed, 0xff, 0x41, 0xfb, 0xe3, 0x02, 0xf4, 0x76, 0x0e, 0x28, 0x30,
  0xd5, 0xe8, 0xb3, 0xbc, 0xeb, 0x23, 0xf9, 0x64, 0x01, 0xdc, 0xf9, 0x15,
  0x6f, 0xc5, 0x5a, 0x54, 0x7a, 0xfd, 0xff, 0xff, 0x04, 0x00, 0x00, 0x00,
  0x20, 0x00, 0x00, 0x00, 0x70, 0xff, 0xff, 0xff, 0xd2, 0xfc, 0xff, 0xff,
  0xf1, 0xff, 0xff, 0xff, 0x69, 0xf8, 0xff, 0xff, 0x07, 0xff, 0xff, 0xff,
  0xfc, 0xff, 0xff, 0xff, 0x57, 0x02, 0x00, 0x00, 0x56, 0xfe, 0xff, 0xff,
  0xa6, 0xfd, 0xff, 0xff, 0x04, 0x00, 0x00, 0x00, 0xc0, 0x00, 0x00, 0x00,
  0x26, 0x1f, 0x9f, 0x07, 0xa6, 0x2d, 0x88, 0x33, 0x0b, 0x43, 0x8e, 0x0c,
  0xf9, 0xfc, 0xbf, 0x1c, 0xde, 0x5c, 0xb0, 0xe8, 0xec, 0x37, 0xb6, 0x2a,
  0xec, 0x0b, 0xc6, 0x26, 0xb0, 0x01, 0xb7, 0x0f, 0xef, 0xf6, 0x97, 0xff,
  0xf5, 0x57, 0xc7, 0x06, 0x07, 0xec, 0x99, 0x1e, 0xd2, 0x0b, 0xb3, 0x1c,
  0x0d, 0xd7, 0x1d, 0x34, 0xec, 0x04, 0xe2, 0x1d, 0x01, 0x28, 0xfd, 0xf9,
  0x24, 0xc8, 0x1b, 0x13, 0xe2, 0x20, 0x44, 0x07, 0x1b, 0x05, 0x1b, 0x28,
  0xf2, 0xe9, 0x25, 0xf5, 0xe6, 0xf4, 0x22, 0x0a, 0xee, 0x0b, 0x19, 0x2d,
  0x2d, 0x1a, 0x3c, 0xf8, 0x06, 0xe0, 0x06, 0xee, 0x32, 0xcc, 0x34, 0x09,
  0xd4, 0x8e, 0xe2, 0xed, 0xc2, 0xb1, 0xdb, 0xe6, 0xcd, 0xe8, 0x81, 0xf1,
  0xe7, 0x97, 0x1a, 0xe7, 0xa0, 0xef, 0xca, 0x1c, 0xea, 0xd3, 0x18, 0x05,
  0xb7, 0xde, 0xa1, 0xfc, 0xaa, 0xda, 0x24, 0xda, 0xa6, 0xd6, 0x89, 0x00,
  0xe9, 0x1a, 0x45, 0xc7, 0xc1, 0xb4, 0x9f, 0xb6, 0xff, 0x00, 0x39, 0xdc,
  0xe1, 0xfb, 0x2a, 0x12, 0xe7, 0xed, 0xc7, 0xec, 0xe0, 0x56, 0xff, 0xe3,
  0x28, 0xe5, 0x0a, 0xcd, 0xd0, 0x42, 0x45, 0xf4, 0x18, 0xfd, 0x0a, 0xdf,
  0xe0, 0x0a, 0x33, 0x08, 0xea, 0x09, 0x10, 0xde, 0xd6, 0x24, 0x1c, 0x33,
  0x2c, 0x15, 0x28, 0xa9, 0xde, 0x08, 0x16, 0xeb, 0x33, 0x05, 0x1a, 0xb9,
  0x72, 0xfe, 0xff, 0xff, 0x04, 0x00, 0x00, 0x00, 0x10, 0x00, 0x00, 0x00,
  0x8a, 0xfc, 0xff, 0xff, 0x7e, 0xf8, 0xff, 0xff, 0x79, 0x14, 0x00, 0x00,
  0x5c, 0xf6, 0xff, 0xff, 0x8e, 0xfe, 0xff, 0xff, 0x04, 0x00, 0x00, 0x00,
  0x08, 0x00, 0x00, 0x00, 0xff, 0xff, 0xff, 0xff, 0x30, 0x00, 0x00, 0x00,
  0xa2, 0xfe, 0xff, 0xff, 0x04, 0x00, 0x00, 0x00, 0x0c, 0x00, 0x00, 0x00,
  0xff, 0xff, 0xff, 0xff, 0x0c, 0x00, 0x00, 0x00, 0x08, 0x00, 0x00, 0x00,
  0xba, 0xfe, 0xff, 0xff, 0x04, 0x00, 0x00, 0x00, 0x0c, 0x00, 0x00, 0x00,
  0xff, 0xff, 0xff, 0xff, 0x0c, 0x00, 0x00, 0x00, 0x10, 0x00, 0x00, 0x00,
  0xd2, 0xfe, 0xff, 0xff, 0x04, 0x00, 0x00, 0x00, 0x0c, 0x00, 0x00, 0x00,
  0xff, 0xff, 0xff, 0xff, 0x19, 0x00, 0x00, 0x00, 0x10, 0x00, 0x00, 0x00,
  0xea, 0xfe, 0xff, 0xff, 0x04, 0x00, 0x00, 0x00, 0x0c, 0x00, 0x00, 0x00,
  0xff, 0xff, 0xff, 0xff, 0x19, 0x00, 0x00, 0x00, 0x20, 0x00, 0x00, 0x00,
  0x02, 0xff, 0xff, 0xff, 0x04, 0x00, 0x00, 0x00, 0x04, 0x00, 0x00, 0x00,
  0x02, 0x00, 0x00, 0x00, 0x12, 0xff, 0xff, 0xff, 0x04, 0x00, 0x00, 0x00,
  0x0c, 0x00, 0x00, 0x00, 0xff, 0xff, 0xff, 0xff, 0x33, 0x00, 0x00, 0x00,
  0x20, 0x00, 0x00, 0x00, 0x2a, 0xff, 0xff, 0xff, 0x04, 0x00, 0x00, 0x00,
  0x04, 0x00, 0x00, 0x00, 0xfd, 0xff, 0xff, 0xff, 0x18, 0xe2, 0xff, 0xff,
  0x1c, 0xe2, 0xff, 0xff, 0x0f, 0x00, 0x00, 0x00, 0x4d, 0x4c, 0x49, 0x52,
  0x20, 0x43, 0x6f, 0x6e, 0x76, 0x65, 0x72, 0x74, 0x65, 0x64, 0x2e, 0x00,
  0x01, 0x00, 0x00, 0x00, 0x14, 0x00, 0x00, 0x00, 0x00, 0x00, 0x0e, 0x00,
  0x18, 0x00, 0x14, 0x00, 0x10, 0x00, 0x0c, 0x00, 0x08, 0x00, 0x04, 0x00,
  0x0e, 0x00, 0x00, 0x00, 0x14, 0x00, 0x00, 0x00, 0x1c, 0x00, 0x00, 0x00,
  0x80, 0x04, 0x00, 0x00, 0x84, 0x04, 0x00, 0x00, 0x88, 0x04, 0x00, 0x00,
  0x04, 0x00, 0x00, 0x00, 0x6d, 0x61, 0x69, 0x6e, 0x00, 0x00, 0x00, 0x00,
  0x14, 0x00, 0x00, 0x00, 0x38, 0x04, 0x00, 0x00, 0xd8, 0x03, 0x00, 0x00,
  0xa0, 0x03, 0x00, 0x00, 0x64, 0x03, 0x00, 0x00, 0x10, 0x03, 0x00, 0x00,
  0xe8, 0x02, 0x00, 0x00, 0xb8, 0x02, 0x00, 0x00, 0x74, 0x02, 0x00, 0x00,
  0x4c, 0x02, 0x00, 0x00, 0x1c, 0x02, 0x00, 0x00, 0xd8, 0x01, 0x00, 0x00,
  0xb0, 0x01, 0x00, 0x00, 0x80, 0x01, 0x00, 0x00, 0x3c, 0x01, 0x00, 0x00,
  0x14, 0x01, 0x00, 0x00, 0xe4, 0x00, 0x00, 0x00, 0xa0, 0x00, 0x00, 0x00,
  0x78, 0x00, 0x00, 0x00, 0x40, 0x00, 0x00, 0x00, 0x04, 0x00, 0x00, 0x00,
  0x82, 0xfc, 0xff, 0xff, 0x1c, 0x00, 0x00, 0x00, 0x00, 0x00, 0x00, 0x09,
  0x1c, 0x00, 0x00, 0x00, 0x20, 0x00, 0x00, 0x00, 0x05, 0x00, 0x00, 0x00,
  0x00, 0x00, 0x06, 0x00, 0x08, 0x00, 0x04, 0x00, 0x06, 0x00, 0x00, 0x00,
  0x00, 0x00, 0x80, 0x3f, 0x01, 0x00, 0x00, 0x00, 0x24, 0x00, 0x00, 0x00,
  0x01, 0x00, 0x00, 0x00, 0x23, 0x00, 0x00, 0x00, 0xba, 0xfc, 0xff, 0xff,
  0x14, 0x00, 0x00, 0x00, 0x00, 0x00, 0x00, 0x08, 0x10, 0x00, 0x00, 0x00,
  0x14, 0x00, 0x00, 0x00, 0x04, 0x00, 0x00, 0x00, 0x14, 0xe3, 0xff, 0xff,
  0x01, 0x00, 0x00, 0x00, 0x23, 0x00, 0x00, 0x00, 0x03, 0x00, 0x00, 0x00,
  0x22, 0x00, 0x00, 0x00, 0x0a, 0x00, 0x00, 0x00, 0x09, 0x00, 0x00, 0x00,
  0x1e, 0xfd, 0xff, 0xff, 0x0c, 0x00, 0x00, 0x00, 0x10, 0x00, 0x00, 0x00,
  0x02, 0x00, 0x00, 0x00, 0x01, 0x00, 0x00, 0x00, 0x22, 0x00, 0x00, 0x00,
  0x02, 0x00, 0x00, 0x00, 0x21, 0x00, 0x00, 0x00, 0x08, 0x00, 0x00, 0x00,
  0x12, 0xfd, 0xff, 0xff, 0x14, 0x00, 0x00, 0x00, 0x00, 0x00, 0x00, 0x05,
  0x24, 0x00, 0x00, 0x00, 0x28, 0x00, 0x00, 0x00, 0x03, 0x00, 0x00, 0x00,
  0xbe, 0xfd, 0xff, 0xff, 0x02, 0x00, 0x00, 0x00, 0x01, 0x00, 0x00, 0x00,
  0x02, 0x00, 0x00, 0x00, 0x01, 0x00, 0x00, 0x00, 0x00, 0x00, 0x00, 0x01,
  0x01, 0x00, 0x00, 0x00, 0x21, 0x00, 0x00, 0x00, 0x01, 0x00, 0x00, 0x00,
  0x20, 0x00, 0x00, 0x00, 0xf6, 0xfc, 0xff, 0xff, 0x10, 0x00, 0x00, 0x00,
  0x00, 0x00, 0x00, 0x34, 0x0c, 0x00, 0x00, 0x00, 0x10, 0x00, 0x00, 0x00,
  0xa8, 0xe3, 0xff, 0xff, 0x01, 0x00, 0x00, 0x00, 0x20, 0x00, 0x00, 0x00,
  0x02, 0x00, 0x00, 0x00, 0x1f, 0x00, 0x00, 0x00, 0x03, 0x00, 0x00, 0x00,
  0xae, 0xfd, 0xff, 0xff, 0x0c, 0x00, 0x00, 0x00, 0x10, 0x00, 0x00, 0x00,
  0x02, 0x00, 0x00, 0x00, 0x01, 0x00, 0x00, 0x00, 0x1f, 0x00, 0x00, 0x00,
  0x02, 0x00, 0x00, 0x00, 0x1e, 0x00, 0x00, 0x00, 0x07, 0x00, 0x00, 0x00,
  0xa2, 0xfd, 0xff, 0xff, 0x14, 0x00, 0x00, 0x00, 0x00, 0x00, 0x00, 0x01,
  0x1c, 0x00, 0x00, 0x00, 0x20, 0x00, 0x00, 0x00, 0x01, 0x00, 0x00, 0x00,
  0x94, 0xfd, 0xff, 0xff, 0x00, 0x00, 0x00, 0x01, 0x01, 0x00, 0x00, 0x00,
  0x01, 0x00, 0x00, 0x00, 0x01, 0x00, 0x00, 0x00, 0x1e, 0x00, 0x00, 0x00,
  0x03, 0x00, 0x00, 0x00, 0x1d, 0x00, 0x00, 0x00, 0x0c, 0x00, 0x00, 0x00,
  0x0b, 0x00, 0x00, 0x00, 0x86, 0xfd, 0xff, 0xff, 0x10, 0x00, 0x00, 0x00,
  0x00, 0x00, 0x00, 0x34, 0x0c, 0x00, 0x00, 0x00, 0x10, 0x00, 0x00, 0x00,
  0x38, 0xe4, 0xff, 0xff, 0x01, 0x00, 0x00, 0x00, 0x1d, 0x00, 0x00, 0x00,
  0x02, 0x00, 0x00, 0x00, 0x1c, 0x00, 0x00, 0x00, 0x01, 0x00, 0x00, 0x00,
  0x3e, 0xfe, 0xff, 0xff, 0x0c, 0x00, 0x00, 0x00, 0x10, 0x00, 0x00, 0x00,
  0x02, 0x00, 0x00, 0x00, 0x01, 0x00, 0x00, 0x00, 0x1c, 0x00, 0x00, 0x00,
  0x02, 0x00, 0x00, 0x00, 0x1b, 0x00, 0x00, 0x00, 0x06, 0x00, 0x00, 0x00,
  0x32, 0xfe, 0xff, 0xff, 0x14, 0x00, 0x00, 0x00, 0x00, 0x00, 0x00, 0x05,
  0x24, 0x00, 0x00, 0x00, 0x28, 0x00, 0x00, 0x00, 0x03, 0x00, 0x00, 0x00,
  0xde, 0xfe, 0xff, 0xff, 0x02, 0x00, 0x00, 0x00, 0x01, 0x00, 0x00, 0x00,
  0x02, 0x00, 0x00, 0x00, 0x01, 0x00, 0x00, 0x00, 0x00, 0x00, 0x00, 0x01,
  0x01, 0x00, 0x00, 0x00, 0x1b, 0x00, 0x00, 0x00, 0x01, 0x00, 0x00, 0x00,
  0x1a, 0x00, 0x00, 0x00, 0x16, 0xfe, 0xff, 0xff, 0x10, 0x00, 0x00, 0x00,
  0x00, 0x00, 0x00, 0x34, 0x0c, 0x00, 0x00, 0x00, 0x10, 0x00, 0x00, 0x00,
  0xc8, 0xe4, 0xff, 0xff, 0x01, 0x00, 0x00, 0x00, 0x1a, 0x00, 0x00, 0x00,
  0x02, 0x00, 0x00, 0x00, 0x19, 0x00, 0x00, 0x00, 0x03, 0x00, 0x00, 0x00,
  0xce, 0xfe, 0xff, 0xff, 0x0c, 0x00, 0x00, 0x00, 0x10, 0x00, 0x00, 0x00,
  0x02, 0x00, 0x00, 0x00, 0x01, 0x00, 0x00, 0x00, 0x19, 0x00, 0x00, 0x00,
  0x02, 0x00, 0x00, 0x00, 0x18, 0x00, 0x00, 0x00, 0x05, 0x00, 0x00, 0x00,
  0xc2, 0xfe, 0xff, 0xff, 0x14, 0x00, 0x00, 0x00, 0x00, 0x00, 0x00, 0x01,
  0x1c, 0x00, 0x00, 0x00, 0x20, 0x00, 0x00, 0x00, 0x01, 0x00, 0x00, 0x00,
  0xb4, 0xfe, 0xff, 0xff, 0x00, 0x00, 0x00, 0x01, 0x01, 0x00, 0x00, 0x00,
  0x01, 0x00, 0x00, 0x00, 0x01, 0x00, 0x00, 0x00, 0x18, 0x00, 0x00, 0x00,
  0x03, 0x00, 0x00, 0x00, 0x17, 0x00, 0x00, 0x00, 0x0e, 0x00, 0x00, 0x00,
  0x0d, 0x00, 0x00, 0x00, 0xa6, 0xfe, 0xff, 0xff, 0x10, 0x00, 0x00, 0x00,
  0x00, 0x00, 0x00, 0x34, 0x0c, 0x00, 0x00, 0x00, 0x10, 0x00, 0x00, 0x00,
  0x58, 0xe5, 0xff, 0xff, 0x01, 0x00, 0x00, 0x00, 0x17, 0x00, 0x00, 0x00,
  0x02, 0x00, 0x00, 0x00, 0x16, 0x00, 0x00, 0x00, 0x01, 0x00, 0x00, 0x00,
  0x5e, 0xff, 0xff, 0xff, 0x0c, 0x00, 0x00, 0x00, 0x10, 0x00, 0x00, 0x00,
  0x02, 0x00, 0x00, 0x00, 0x01, 0x00, 0x00, 0x00, 0x16, 0x00, 0x00, 0x00,
  0x02, 0x00, 0x00, 0x00, 0x15, 0x00, 0x00, 0x00, 0x04, 0x00, 0x00, 0x00,
  0x52, 0xff, 0xff, 0xff, 0x24, 0x00, 0x00, 0x00, 0x00, 0x00, 0x00, 0x05,
  0x34, 0x00, 0x00, 0x00, 0x38, 0x00, 0x00, 0x00, 0x03, 0x00, 0x00, 0x00,
  0x00, 0x00, 0x0e, 0x00, 0x18, 0x00, 0x17, 0x00, 0x10, 0x00, 0x0c, 0x00,
  0x08, 0x00, 0x04, 0x00, 0x0e, 0x00, 0x00, 0x00, 0x02, 0x00, 0x00, 0x00,
  0x01, 0x00, 0x00, 0x00, 0x02, 0x00, 0x00, 0x00, 0x01, 0x00, 0x00, 0x00,
  0x00, 0x00, 0x00, 0x01, 0x01, 0x00, 0x00, 0x00, 0x15, 0x00, 0x00, 0x00,
  0x01, 0x00, 0x00, 0x00, 0x14, 0x00, 0x00, 0x00, 0x46, 0xff, 0xff, 0xff,
  0x10, 0x00, 0x00, 0x00, 0x00, 0x00, 0x00, 0x34, 0x0c, 0x00, 0x00, 0x00,
  0x10, 0x00, 0x00, 0x00, 0xf8, 0xe5, 0xff, 0xff, 0x01, 0x00, 0x00, 0x00,
  0x14, 0x00, 0x00, 0x00, 0x02, 0x00, 0x00, 0x00, 0x13, 0x00, 0x00, 0x00,
  0x03, 0x00, 0x00, 0x00, 0x00, 0x00, 0x0a, 0x00, 0x10, 0x00, 0x0c, 0x00,
  0x08, 0x00, 0x04, 0x00, 0x0a, 0x00, 0x00, 0x00, 0x0c, 0x00, 0x00, 0x00,
  0x10, 0x00, 0x00, 0x00, 0x02, 0x00, 0x00, 0x00, 0x01, 0x00, 0x00, 0x00,
  0x13, 0x00, 0x00, 0x00, 0x02, 0x00, 0x00, 0x00, 0x12, 0x00, 0x00, 0x00,
  0x02, 0x00, 0x00, 0x00, 0x00, 0x00, 0x0e, 0x00, 0x18, 0x00, 0x14, 0x00,
  0x10, 0x00, 0x0c, 0x00, 0x0b, 0x00, 0x04, 0x00, 0x0e, 0x00, 0x00, 0x00,
  0x20, 0x00, 0x00, 0x00, 0x00, 0x00, 0x00, 0x01, 0x28, 0x00, 0x00, 0x00,
  0x2c, 0x00, 0x00, 0x00, 0x01, 0x00, 0x00, 0x00, 0x0c, 0x00, 0x10, 0x00,
  0x00, 0x00, 0x0c, 0x00, 0x08, 0x00, 0x07, 0x00, 0x0c, 0x00, 0x00, 0x00,
  0x00, 0x00, 0x00, 0x01, 0x01, 0x00, 0x00, 0x00, 0x01, 0x00, 0x00, 0x00,
  0x01, 0x00, 0x00, 0x00, 0x12, 0x00, 0x00, 0x00, 0x03, 0x00, 0x00, 0x00,
  0x11, 0x00, 0x00, 0x00, 0x10, 0x00, 0x00, 0x00, 0x0f, 0x00, 0x00, 0x00,
  0x00, 0x00, 0x0e, 0x00, 0x14, 0x00, 0x00, 0x00, 0x10, 0x00, 0x0c, 0x00,
  0x0b, 0x00, 0x04, 0x00, 0x0e, 0x00, 0x00, 0x00, 0x10, 0x00, 0x00, 0x00,
  0x00, 0x00, 0x00, 0x34, 0x0c, 0x00, 0x00, 0x00, 0x10, 0x00, 0x00, 0x00,
  0xc0, 0xe6, 0xff, 0xff, 0x01, 0x00, 0x00, 0x00, 0x11, 0x00, 0x00, 0x00,
  0x02, 0x00, 0x00, 0x00, 0x00, 0x00, 0x00, 0x00, 0x01, 0x00, 0x00, 0x00,
  0x01, 0x00, 0x00, 0x00, 0x24, 0x00, 0x00, 0x00, 0x01, 0x00, 0x00, 0x00,
  0x00, 0x00, 0x00, 0x00, 0x25, 0x00, 0x00, 0x00, 0x64, 0x19, 0x00, 0x00,
  0xf4, 0x18, 0x00, 0x00, 0x88, 0x18, 0x00, 0x00, 0x34, 0x18, 0x00, 0x00,
  0xe0, 0x17, 0x00, 0x00, 0x8c, 0x17, 0x00, 0x00, 0x38, 0x17, 0x00, 0x00,
  0xe4, 0x16, 0x00, 0x00, 0x98, 0x16, 0x00, 0x00, 0x20, 0x16, 0x00, 0x00,
  0xb4, 0x15, 0x00, 0x00, 0xe8, 0x14, 0x00, 0x00, 0x1c, 0x14, 0x00, 0x00,
  0xf0, 0x12, 0x00, 0x00, 0xc4, 0x11, 0x00, 0x00, 0xd8, 0x0f, 0x00, 0x00,
  0xec, 0x0d, 0x00, 0x00, 0x58, 0x0d, 0x00, 0x00, 0x54, 0x0c, 0x00, 0x00,
  0x6c, 0x0b, 0x00, 0x00, 0xd4, 0x0a, 0x00, 0x00, 0x40, 0x0a, 0x00, 0x00,
  0xb0, 0x09, 0x00, 0x00, 0x18, 0x09, 0x00, 0x00, 0x04, 0x08, 0x00, 0x00,
  0x14, 0x07, 0x00, 0x00, 0x7c, 0x06, 0x00, 0x00, 0xe8, 0x05, 0x00, 0x00,
  0x58, 0x05, 0x00, 0x00, 0xc0, 0x04, 0x00, 0x00, 0xac, 0x03, 0x00, 0x00,
  0xbc, 0x02, 0x00, 0x00, 0x24, 0x02, 0x00, 0x00, 0x90, 0x01, 0x00, 0x00,
  0x14, 0x01, 0x00, 0x00, 0x80, 0x00, 0x00, 0x00, 0x04, 0x00, 0x00, 0x00,
  0x46, 0xe7, 0xff, 0xff, 0x00, 0x00, 0x00, 0x01, 0x18, 0x00, 0x00, 0x00,
  0x20, 0x00, 0x00, 0x00, 0x3c, 0x00, 0x00, 0x00, 0x25, 0x00, 0x00, 0x00,
  0x00, 0x00, 0x00, 0x09, 0x50, 0x00, 0x00, 0x00, 0x02, 0x00, 0x00, 0x00,
  0xff, 0xff, 0xff, 0xff, 0x04, 0x00, 0x00, 0x00, 0x2c, 0xe7, 0xff, 0xff,
  0x08, 0x00, 0x00, 0x00, 0x10, 0x00, 0x00, 0x00, 0x01, 0x00, 0x00, 0x00,
  0x80, 0xff, 0xff, 0xff, 0xff, 0xff, 0xff, 0xff, 0x01, 0x00, 0x00, 0x00,
  0x00, 0x00, 0x80, 0x3b, 0x19, 0x00, 0x00, 0x00, 0x53, 0x74, 0x61, 0x74,
  0x65, 0x66, 0x75, 0x6c, 0x50, 0x61, 0x72, 0x74, 0x69, 0x74, 0x69, 0x6f,
  0x6e, 0x65, 0x64, 0x43, 0x61, 0x6c, 0x6c, 0x3a, 0x30, 0x00, 0x00, 0x00,
  0x02, 0x00, 0x00, 0x00, 0x01, 0x00, 0x00, 0x00, 0x04, 0x00, 0x00, 0x00,
  0xbe, 0xe7, 0xff, 0xff, 0x00, 0x00, 0x00, 0x01, 0x18, 0x00, 0x00, 0x00,
  0x20, 0x00, 0x00, 0x00, 0x3c, 0x00, 0x00, 0x00, 0x24, 0x00, 0x00, 0x00,
  0x00, 0x00, 0x00, 0x09, 0x68, 0x00, 0x00, 0x00, 0x02, 0x00, 0x00, 0x00,
  0xff, 0xff, 0xff, 0xff, 0x04, 0x00, 0x00, 0x00, 0xa4, 0xe7, 0xff, 0xff,
  0x08, 0x00, 0x00, 0x00, 0x10, 0x00, 0x00, 0x00, 0x01, 0x00, 0x00, 0x00,
  0x1b, 0x00, 0x00, 0x00, 0x00, 0x00, 0x00, 0x00, 0x01, 0x00, 0x00, 0x00,
  0x54, 0x84, 0x49, 0x3e, 0x30, 0x00, 0x00, 0x00, 0x73, 0x65, 0x71, 0x75,
  0x65, 0x6e, 0x74, 0x69, 0x61, 0x6c, 0x2f, 0x64, 0x65, 0x6e, 0x73, 0x65,
  0x2f, 0x4d, 0x61, 0x74, 0x4d, 0x75, 0x6c, 0x3b, 0x73, 0x65, 0x71, 0x75,
  0x65, 0x6e, 0x74, 0x69, 0x61, 0x6c, 0x2f, 0x64, 0x65, 0x6e, 0x73, 0x65,
  0x2f, 0x42, 0x69, 0x61, 0x73, 0x41, 0x64, 0x64, 0x00, 0x00, 0x00, 0x00,
  0x02, 0x00, 0x00, 0x00, 0x01, 0x00, 0x00, 0x00, 0x04, 0x00, 0x00, 0x00,
  0x4e, 0xe8, 0xff, 0xff, 0x00, 0x00, 0x00, 0x01, 0x18, 0x00, 0x00, 0x00,
  0x20, 0x00, 0x00, 0x00, 0x3c, 0x00, 0x00, 0x00, 0x23, 0x00, 0x00, 0x00,
  0x00, 0x00, 0x00, 0x09, 0x50, 0x00, 0x00, 0x00, 0x02, 0x00, 0x00, 0x00,
  0xff, 0xff, 0xff, 0xff, 0x30, 0x00, 0x00, 0x00, 0x34, 0xe8, 0xff, 0xff,
  0x08, 0x00, 0x00, 0x00, 0x10, 0x00, 0x00, 0x00, 0x01, 0x00, 0x00, 0x00,
  0x80, 0xff, 0xff, 0xff, 0xff, 0xff, 0xff, 0xff, 0x01, 0x00, 0x00, 0x00,
  0xbc, 0x4b, 0xe4, 0x3d, 0x1a, 0x00, 0x00, 0x00, 0x73, 0x65, 0x71, 0x75,
  0x65, 0x6e, 0x74, 0x69, 0x61, 0x6c, 0x2f, 0x66, 0x6c, 0x61, 0x74, 0x74,
  0x65, 0x6e, 0x2f, 0x52, 0x65, 0x73, 0x68, 0x61, 0x70, 0x65, 0x00, 0x00,
  0x02, 0x00, 0x00, 0x00, 0x01, 0x00, 0x00, 0x00, 0x30, 0x00, 0x00, 0x00,
  0xc6, 0xe8, 0xff, 0xff, 0x00, 0x00, 0x00, 0x01, 0x18, 0x00, 0x00, 0x00,
  0x28, 0x00, 0x00, 0x00, 0x44, 0x00, 0x00, 0x00, 0x22, 0x00, 0x00, 0x00,
  0x00, 0x00, 0x00, 0x09, 0x60, 0x00, 0x00, 0x00, 0x04, 0x00, 0x00, 0x00,
  0xff, 0xff, 0xff, 0xff, 0x06, 0x00, 0x00, 0x00, 0x01, 0x00, 0x00, 0x00,
  0x08, 0x00, 0x00, 0x00, 0xb4, 0xe8, 0xff, 0xff, 0x08, 0x00, 0x00, 0x00,
  0x10, 0x00, 0x00, 0x00, 0x01, 0x00, 0x00, 0x00, 0x80, 0xff, 0xff, 0xff,
  0xff, 0xff, 0xff, 0xff, 0x01, 0x00, 0x00, 0x00, 0xbc, 0x4b, 0xe4, 0x3d,
  0x22, 0x00, 0x00, 0x00, 0x73, 0x65, 0x71, 0x75, 0x65, 0x6e, 0x74, 0x69,
  0x61, 0x6c, 0x2f, 0x6d, 0x61, 0x78, 0x5f, 0x70, 0x6f, 0x6f, 0x6c, 0x69,
  0x6e, 0x67, 0x31, 0x64, 0x5f, 0x32, 0x2f, 0x4d, 0x61, 0x78, 0x50, 0x6f,
  0x6f, 0x6c, 0x00, 0x00, 0x04, 0x00, 0x00, 0x00, 0x01, 0x00, 0x00, 0x00,
  0x06, 0x00, 0x00, 0x00, 0x01, 0x00, 0x00, 0x00, 0x08, 0x00, 0x00, 0x00,
  0x56, 0xe9, 0xff, 0xff, 0x00, 0x00, 0x00, 0x01, 0x18, 0x00, 0x00, 0x00,
  0x28, 0x00, 0x00, 0x00, 0x44, 0x00, 0x00, 0x00, 0x21, 0x00, 0x00, 0x00,
  0x00, 0x00, 0x00, 0x09, 0x64, 0x00, 0x00, 0x00, 0x04, 0x00, 0x00, 0x00,
  0xff, 0xff, 0xff, 0xff, 0x0c, 0x00, 0x00, 0x00, 0x01, 0x00, 0x00, 0x00,
  0x08, 0x00, 0x00, 0x00, 0x44, 0xe9, 0xff, 0xff, 0x08, 0x00, 0x00, 0x00,
  0x10, 0x00, 0x00, 0x00, 0x01, 0x00, 0x00, 0x00, 0x80, 0xff, 0xff, 0xff,
  0xff, 0xff, 0xff, 0xff, 0x01, 0x00, 0x00, 0x00, 0xbc, 0x4b, 0xe4, 0x3d,
  0x25, 0x00, 0x00, 0x00, 0x73, 0x65, 0x71, 0x75, 0x65, 0x6e, 0x74, 0x69,
  0x61, 0x6c, 0x2f, 0x6d, 0x61, 0x78, 0x5f, 0x70, 0x6f, 0x6f, 0x6c, 0x69,
  0x6e, 0x67, 0x31, 0x64, 0x5f, 0x32, 0x2f, 0x45, 0x78, 0x70, 0x61, 0x6e,
  0x64, 0x44, 0x69, 0x6d, 0x73, 0x00, 0x00, 0x00, 0x04, 0x00, 0x00, 0x00,
  0x01, 0x00, 0x00, 0x00, 0x0c, 0x00, 0x00, 0x00, 0x01, 0x00, 0x00, 0x00,
  0x08, 0x00, 0x00, 0x00, 0xea, 0xe9, 0xff, 0xff, 0x00, 0x00, 0x00, 0x01,
  0x18, 0x00, 0x00, 0x00, 0x24, 0x00, 0x00, 0x00, 0x44, 0x00, 0x00, 0x00,
  0x20, 0x00, 0x00, 0x00, 0x00, 0x00, 0x00, 0x09, 0xc0, 0x00, 0x00, 0x00,
  0x03, 0x00, 0x00, 0x00, 0xff, 0xff, 0xff, 0xff, 0x0c, 0x00, 0x00, 0x00,
  0x08, 0x00, 0x00, 0x00, 0xd4, 0xe9, 0xff, 0xff, 0x08, 0x00, 0x00, 0x00,
  0x14, 0x00, 0x00, 0x00, 0x01, 0x00, 0x00, 0x00, 0x80, 0xff, 0xff, 0xff,
  0xff, 0xff, 0xff, 0xff, 0x00, 0x00, 0x00, 0x00, 0x01, 0x00, 0x00, 0x00,
  0xbc, 0x4b, 0xe4, 0x3d, 0x82, 0x00, 0x00, 0x00, 0x73, 0x65, 0x71, 0x75,
  0x65, 0x6e, 0x74, 0x69, 0x61, 0x6c, 0x2f, 0x63, 0x6f, 0x6e, 0x76, 0x31,
  0x64, 0x5f, 0x32, 0x2f, 0x52, 0x65, 0x6c, 0x75, 0x3b, 0x73, 0x65, 0x71,
  0x75, 0x65, 0x6e, 0x74, 0x69, 0x61, 0x6c, 0x2f, 0x63, 0x6f, 0x6e, 0x76,
  0x31, 0x64, 0x5f, 0x32, 0x2f, 0x42, 0x69, 0x61, 0x73, 0x41, 0x64, 0x64,
  0x3b, 0x73, 0x65, 0x71, 0x75, 0x65, 0x6e, 0x74, 0x69, 0x61, 0x6c, 0x2f,
  0x63, 0x6f, 0x6e, 0x76, 0x31, 0x64, 0x5f, 0x32, 0x2f, 0x43, 0x6f, 0x6e,
  0x76, 0x31, 0x44, 0x2f, 0x53, 0x71, 0x75, 0x65, 0x65, 0x7a, 0x65, 0x3b,
  0x73, 0x65, 0x71, 0x75, 0x65, 0x6e, 0x74, 0x69, 0x61, 0x6c, 0x2f, 0x63,
  0x6f, 0x6e, 0x76, 0x31, 0x64, 0x5f, 0x32, 0x2f, 0x42, 0x69, 0x61, 0x73,
  0x41, 0x64, 0x64, 0x2f, 0x52, 0x65, 0x61, 0x64, 0x56, 0x61, 0x72, 0x69,
  0x61, 0x62, 0x6c, 0x65, 0x4f, 0x70, 0x00, 0x00, 0x03, 0x00, 0x00, 0x00,
  0x01, 0x00, 0x00, 0x00, 0x0c, 0x00, 0x00, 0x00, 0x08, 0x00, 0x00, 0x00,
  0xd6, 0xea, 0xff, 0xff, 0x00, 0x00, 0x00, 0x01, 0x18, 0x00, 0x00, 0x00,
  0x28, 0x00, 0x00, 0x00, 0x48, 0x00, 0x00, 0x00, 0x1f, 0x00, 0x00, 0x00,
  0x00, 0x00, 0x00, 0x09, 0xe0, 0x00, 0x00, 0x00, 0x04, 0x00, 0x00, 0x00,
  0xff, 0xff, 0xff, 0xff, 0x01, 0x00, 0x00, 0x00, 0x0c, 0x00, 0x00, 0x00,
  0x08, 0x00, 0x00, 0x00, 0xc4, 0xea, 0xff, 0xff, 0x08, 0x00, 0x00, 0x00,
  0x14, 0x00, 0x00, 0x00, 0x01, 0x00, 0x00, 0x00, 0x80, 0xff, 0xff, 0xff,
  0xff, 0xff, 0xff, 0xff, 0x00, 0x00, 0x00, 0x00, 0x01, 0x00, 0x00, 0x00,
  0xbc, 0x4b, 0xe4, 0x3d, 0x9d, 0x00, 0x00, 0x00, 0x73, 0x65, 0x71, 0x75,
  0x65, 0x6e, 0x74, 0x69, 0x61, 0x6c, 0x2f, 0x63, 0x6f, 0x6e, 0x76, 0x31,
  0x64, 0x5f, 0x32, 0x2f, 0x52, 0x65, 0x6c, 0x75, 0x3b, 0x73, 0x65, 0x71,
  0x75, 0x65, 0x6e, 0x74, 0x69, 0x61, 0x6c, 0x2f, 0x63, 0x6f, 0x6e, 0x76,
  0x31, 0x64, 0x5f, 0x32, 0x2f, 0x42, 0x69, 0x61, 0x73, 0x41, 0x64, 0x64,
  0x3b, 0x73, 0x65, 0x71, 0x75, 0x65, 0x6e, 0x74, 0x69, 0x61, 0x6c, 0x2f,
  0x63, 0x6f, 0x6e, 0x76, 0x31, 0x64, 0x5f, 0x32, 0x2f, 0x43, 0x6f, 0x6e,
  0x76, 0x31, 0x44, 0x2f, 0x53, 0x71, 0x75, 0x65, 0x65, 0x7a, 0x65, 0x3b,
  0x73, 0x65, 0x71, 0x75, 0x65, 0x6e, 0x74, 0x69, 0x61, 0x6c, 0x2f, 0x63,
  0x6f, 0x6e, 0x76, 0x31, 0x64, 0x5f, 0x32, 0x2f, 0x42, 0x69, 0x61, 0x73,
  0x41, 0x64, 0x64, 0x2f, 0x52, 0x65, 0x61, 0x64, 0x56, 0x61, 0x72, 0x69,
  0x61, 0x62, 0x6c, 0x65, 0x4f, 0x70, 0x3b, 0x73, 0x65, 0x71, 0x75, 0x65,
  0x6e, 0x74, 0x69, 0x61, 0x6c, 0x2f, 0x63, 0x6f, 0x6e, 0x76, 0x31, 0x64,
  0x5f, 0x32, 0x2f, 0x43, 0x6f, 0x6e, 0x76, 0x31, 0x44, 0x00, 0x00, 0x00,
  0x04, 0x00, 0x00, 0x00, 0x01, 0x00, 0x00, 0x00, 0x01, 0x00, 0x00, 0x00,
  0x0c, 0x00, 0x00, 0x00, 0x08, 0x00, 0x00, 0x00, 0xe6, 0xeb, 0xff, 0xff,
  0x00, 0x00, 0x00, 0x01, 0x18, 0x00, 0x00, 0x00, 0x28, 0x00, 0x00, 0x00,
  0x44, 0x00, 0x00, 0x00, 0x1e, 0x00, 0x00, 0x00, 0x00, 0x00, 0x00, 0x09,
  0x64, 0x00, 0x00, 0x00, 0x04, 0x00, 0x00, 0x00, 0xff, 0xff, 0xff, 0xff,
  0x01, 0x00, 0x00, 0x00, 0x0c, 0x00, 0x00, 0x00, 0x10, 0x00, 0x00, 0x00,
  0xd4, 0xeb, 0xff, 0xff, 0x08, 0x00, 0x00, 0x00, 0x10, 0x00, 0x00, 0x00,
  0x01, 0x00, 0x00, 0x00, 0x80, 0xff, 0xff, 0xff, 0xff, 0xff, 0xff, 0xff,
  0x01, 0x00, 0x00, 0x00, 0xb1, 0x62, 0x28, 0x3e, 0x25, 0x00, 0x00, 0x00,
  0x73, 0x65, 0x71, 0x75, 0x65, 0x6e, 0x74, 0x69, 0x61, 0x6c, 0x2f, 0x63,
  0x6f, 0x6e, 0x76, 0x31, 0x64, 0x5f, 0x32, 0x2f, 0x43, 0x6f, 0x6e, 0x76,
  0x31, 0x44, 0x2f, 0x45, 0x78, 0x70, 0x61, 0x6e, 0x64, 0x44, 0x69, 0x6d,
  0x73, 0x00, 0x00, 0x00, 0x04, 0x00, 0x00, 0x00, 0x01, 0x00, 0x00, 0x00,
  0x01, 0x00, 0x00, 0x00, 0x0c, 0x00, 0x00, 0x00, 0x10, 0x00, 0x00, 0x00,
  0x7a, 0xec, 0xff, 0xff, 0x00, 0x00, 0x00, 0x01, 0x18, 0x00, 0x00, 0x00,
  0x24, 0x00, 0x00, 0x00, 0x44, 0x00, 0x00, 0x00, 0x1d, 0x00, 0x00, 0x00,
  0x00, 0x00, 0x00, 0x09, 0x60, 0x00, 0x00, 0x00, 0x03, 0x00, 0x00, 0x00,
  0xff, 0xff, 0xff, 0xff, 0x0c, 0x00, 0x00, 0x00, 0x10, 0x00, 0x00, 0x00,
  0x64, 0xec, 0xff, 0xff, 0x08, 0x00, 0x00, 0x00, 0x14, 0x00, 0x00, 0x00,
  0x01, 0x00, 0x00, 0x00, 0x80, 0xff, 0xff, 0xff, 0xff, 0xff, 0xff, 0xff,
  0x00, 0x00, 0x00, 0x00, 0x01, 0x00, 0x00, 0x00, 0xb1, 0x62, 0x28, 0x3e,
  0x23, 0x00, 0x00, 0x00, 0x73, 0x65, 0x71, 0x75, 0x65, 0x6e, 0x74, 0x69,
  0x61, 0x6c, 0x2f, 0x6d, 0x61, 0x78, 0x5f, 0x70, 0x6f, 0x6f, 0x6c, 0x69,
  0x6e, 0x67, 0x31, 0x64, 0x5f, 0x31, 0x2f, 0x53, 0x71, 0x75, 0x65, 0x65,
  0x7a, 0x65, 0x31, 0x00, 0x03, 0x00, 0x00, 0x00, 0x01, 0x00, 0x00, 0x00,
  0x0c, 0x00, 0x00, 0x00, 0x10, 0x00, 0x00, 0x00, 0x06, 0xed, 0xff, 0xff,
  0x00, 0x00, 0x00, 0x01, 0x18, 0x00, 0x00, 0x00, 0x28, 0x00, 0x00, 0x00,
  0x44, 0x00, 0x00, 0x00, 0x1c, 0x00, 0x00, 0x00, 0x00, 0x00, 0x00, 0x09,
  0x60, 0x00, 0x00, 0x00, 0x04, 0x00, 0x00, 0x00, 0xff, 0xff, 0xff, 0xff,
  0x0c, 0x00, 0x00, 0x00, 0x01, 0x00, 0x00, 0x00, 0x10, 0x00, 0x00, 0x00,
  0xf4, 0xec, 0xff, 0xff, 0x08, 0x00, 0x00, 0x00, 0x10, 0x00, 0x00, 0x00,
  0x01, 0x00, 0x00, 0x00, 0x80, 0xff, 0xff, 0xff, 0xff, 0xff, 0xff, 0xff,
  0x01, 0x00, 0x00, 0x00, 0xb1, 0x62, 0x28, 0x3e, 0x22, 0x00, 0x00, 0x00,
  0x73, 0x65, 0x71, 0x75, 0x65, 0x6e, 0x74, 0x69, 0x61, 0x6c, 0x2f, 0x6d,
  0x61, 0x78, 0x5f, 0x70, 0x6f, 0x6f, 0x6c, 0x69, 0x6e, 0x67, 0x31, 0x64,
  0x5f, 0x31, 0x2f, 0x4d, 0x61, 0x78, 0x50, 0x6f, 0x6f, 0x6c, 0x00, 0x00,
  0x04, 0x00, 0x00, 0x00, 0x01, 0x00, 0x00, 0x00, 0x0c, 0x00, 0x00, 0x00,
  0x01, 0x00, 0x00, 0x00, 0x10, 0x00, 0x00, 0x00, 0x96, 0xed, 0xff, 0xff,
  0x00, 0x00, 0x00, 0x01, 0x18, 0x00, 0x00, 0x00, 0x28, 0x00, 0x00, 0x00,
  0x44, 0x00, 0x00, 0x00, 0x1b, 0x00, 0x00, 0x00, 0x00, 0x00, 0x00, 0x09,
  0x64, 0x00, 0x00, 0x00, 0x04, 0x00, 0x00, 0x00, 0xff, 0xff, 0xff, 0xff,
  0x19, 0x00, 0x00, 0x00, 0x01, 0x00, 0x00, 0x00, 0x10, 0x00, 0x00, 0x00,
  0x84, 0xed, 0xff, 0xff, 0x08, 0x00, 0x00, 0x00, 0x10, 0x00, 0x00, 0x00,
  0x01, 0x00, 0x00, 0x00, 0x80, 0xff, 0xff, 0xff, 0xff, 0xff, 0xff, 0xff,
  0x01, 0x00, 0x00, 0x00, 0xb1, 0x62, 0x28, 0x3e, 0x25, 0x00, 0x00, 0x00,
  0x73, 0x65, 0x71, 0x75, 0x65, 0x6e, 0x74, 0x69, 0x61, 0x6c, 0x2f, 0x6d,
  0x61, 0x78, 0x5f, 0x70, 0x6f, 0x6f, 0x6c, 0x69, 0x6e, 0x67, 0x31, 0x64,
  0x5f, 0x31, 0x2f, 0x45, 0x78, 0x70, 0x61, 0x6e, 0x64, 0x44, 0x69, 0x6d,
  0x73, 0x00, 0x00, 0x00, 0x04, 0x00, 0x00, 0x00, 0x01, 0x00, 0x00, 0x00,
  0x19, 0x00, 0x00, 0x00, 0x01, 0x00, 0x00, 0x00, 0x10, 0x00, 0x00, 0x00,
  0x2a, 0xee, 0xff, 0xff, 0x00, 0x00, 0x00, 0x01, 0x18, 0x00, 0x00, 0x00,
  0x24, 0x00, 0x00, 0x00, 0x44, 0x00, 0x00, 0x00, 0x1a, 0x00, 0x00, 0x00,
  0x00, 0x00, 0x00, 0x09, 0xc0, 0x00, 0x00, 0x00, 0x03, 0x00, 0x00, 0x00,
  0xff, 0xff, 0xff, 0xff, 0x19, 0x00, 0x00, 0x00, 0x10, 0x00, 0x00, 0x00,
  0x14, 0xee, 0xff, 0xff, 0x08, 0x00, 0x00, 0x00, 0x14, 0x00, 0x00, 0x00,
  0x01, 0x00, 0x00, 0x00, 0x80, 0xff, 0xff, 0xff, 0xff, 0xff, 0xff, 0xff,
  0x00, 0x00, 0x00, 0x00, 0x01, 0x00, 0x00, 0x00, 0xb1, 0x62, 0x28, 0x3e,
  0x82, 0x00, 0x00, 0x00, 0x73, 0x65, 0x71, 0x75, 0x65, 0x6e, 0x74, 0x69,
  0x61, 0x6c, 0x2f, 0x63, 0x6f, 0x6e, 0x76, 0x31, 0x64, 0x5f, 0x31, 0x2f,
  0x52, 0x65, 0x6c, 0x75, 0x3b, 0x73, 0x65, 0x71, 0x75, 0x65, 0x6e, 0x74,
  0x69, 0x61, 0x6c, 0x2f, 0x63, 0x6f, 0x6e, 0x76, 0x31, 0x64, 0x5f, 0x31,
  0x2f, 0x42, 0x69, 0x61, 0x73, 0x41, 0x64, 0x64, 0x3b, 0x73, 0x65, 0x71,
  0x75, 0x65, 0x6e, 0x74, 0x69, 0x61, 0x6c, 0x2f, 0x63, 0x6f, 0x6e, 0x76,
  0x31, 0x64, 0x5f, 0x31, 0x2f, 0x43, 0x6f, 0x6e, 0x76, 0x31, 0x44, 0x2f,
  0x53, 0x71, 0x75, 0x65, 0x65, 0x7a, 0x65, 0x3b, 0x73, 0x65, 0x71, 0x75,
  0x65, 0x6e, 0x74, 0x69, 0x61, 0x6c, 0x2f, 0x63, 0x6f, 0x6e, 0x76, 0x31,
  0x64, 0x5f, 0x31, 0x2f, 0x42, 0x69, 0x61, 0x73, 0x41, 0x64, 0x64, 0x2f,
  0x52, 0x65, 0x61, 0x64, 0x56, 0x61, 0x72, 0x69, 0x61, 0x62, 0x6c, 0x65,
  0x4f, 0x70, 0x00, 0x00, 0x03, 0x00, 0x00, 0x00, 0x01, 0x00, 0x00, 0x00,
  0x19, 0x00, 0x00, 0x00, 0x10, 0x00, 0x00, 0x00, 0x16, 0xef, 0xff, 0xff,
  0x00, 0x00, 0x00, 0x01, 0x18, 0x00, 0x00, 0x00, 0x28, 0x00, 0x00, 0x00,
  0x48, 0x00, 0x00, 0x00, 0x19, 0x00, 0x00, 0x00, 0x00, 0x00, 0x00, 0x09,
  0xe0, 0x00, 0x00, 0x00, 0x04, 0x00, 0x00, 0x00, 0xff, 0xff, 0xff, 0xff,
  0x01, 0x00, 0x00, 0x00, 0x19, 0x00, 0x00, 0x00, 0x10, 0x00, 0x00, 0x00,
  0x04, 0xef, 0xff, 0xff, 0x08, 0x00, 0x00, 0x00, 0x14, 0x00, 0x00, 0x00,
  0x01, 0x00, 0x00, 0x00, 0x80, 0xff, 0xff, 0xff, 0xff, 0xff, 0xff, 0xff,
  0x00, 0x00, 0x00, 0x00, 0x01, 0x00, 0x00, 0x00, 0xb1, 0x62, 0x28, 0x3e,
  0x9d, 0x00, 0x00, 0x00, 0x73, 0x65, 0x71, 0x75, 0x65, 0x6e, 0x74, 0x69,
  0x61, 0x6c, 0x2f, 0x63, 0x6f, 0x6e, 0x76, 0x31, 0x64, 0x5f, 0x31, 0x2f,
  0x52, 0x65, 0x6c, 0x75, 0x3b, 0x73, 0x65, 0x71, 0x75, 0x65, 0x6e, 0x74,
  0x69, 0x61, 0x6c, 0x2f, 0x63, 0x6f, 0x6e, 0x76, 0x31, 0x64, 0x5f, 0x31,
  0x2f, 0x42, 0x69, 0x61, 0x73, 0x41, 0x64, 0x64, 0x3b, 0x73, 0x65, 0x71,
  0x75, 0x65, 0x6e, 0x74, 0x69, 0x61, 0x6c, 0x2f, 0x63, 0x6f, 0x6e, 0x76,
  0x31, 0x64, 0x5f, 0x31, 0x2f, 0x43, 0x6f, 0x6e, 0x76, 0x31, 0x44, 0x2f,
  0x53, 0x71, 0x75, 0x65, 0x65, 0x7a, 0x65, 0x3b, 0x73, 0x65, 0x71, 0x75,
  0x65, 0x6e, 0x74, 0x69, 0x61, 0x6c, 0x2f, 0x63, 0x6f, 0x6e, 0x76, 0x31,
  0x64, 0x5f, 0x31, 0x2f, 0x42, 0x69, 0x61, 0x73, 0x41, 0x64, 0x64, 0x2f,
  0x52, 0x65, 0x61, 0x64, 0x56, 0x61, 0x72, 0x69, 0x61, 0x62, 0x6c, 0x65,
  0x4f, 0x70, 0x3b, 0x73, 0x65, 0x71, 0x75, 0x65, 0x6e, 0x74, 0x69, 0x61,
  0x6c, 0x2f, 0x63, 0x6f, 0x6e, 0x76, 0x31, 0x64, 0x5f, 0x31, 0x2f, 0x43,
  0x6f, 0x6e, 0x76, 0x31, 0x44, 0x00, 0x00, 0x00, 0x04, 0x00, 0x00, 0x00,
  0x01, 0x00, 0x00, 0x00, 0x01, 0x00, 0x00, 0x00, 0x19, 0x00, 0x00, 0x00,
  0x10, 0x00, 0x00, 0x00, 0x26, 0xf0, 0xff, 0xff, 0x00, 0x00, 0x00, 0x01,
  0x18, 0x00, 0x00, 0x00, 0x28, 0x00, 0x00, 0x00, 0x44, 0x00, 0x00, 0x00,
  0x18, 0x00, 0x00, 0x00, 0x00, 0x00, 0x00, 0x09, 0x64, 0x00, 0x00, 0x00,
  0x04, 0x00, 0x00, 0x00, 0xff, 0xff, 0xff, 0xff, 0x01, 0x00, 0x00, 0x00,
  0x19, 0x00, 0x00, 0x00, 0x20, 0x00, 0x00, 0x00, 0x14, 0xf0, 0xff, 0xff,
  0x08, 0x00, 0x00, 0x00, 0x10, 0x00, 0x00, 0x00, 0x01, 0x00, 0x00, 0x00,
  0x80, 0xff, 0xff, 0xff, 0xff, 0xff, 0xff, 0xff, 0x01, 0x00, 0x00, 0x00,
  0x0c, 0xac, 0x57, 0x3e, 0x25, 0x00, 0x00, 0x00, 0x73, 0x65, 0x71, 0x75,
  0x65, 0x6e, 0x74, 0x69, 0x61, 0x6c, 0x2f, 0x63, 0x6f, 0x6e, 0x76, 0x31,
  0x64, 0x5f, 0x31, 0x2f, 0x43, 0x6f, 0x6e, 0x76, 0x31, 0x44, 0x2f, 0x45,
  0x78, 0x70, 0x61, 0x6e, 0x64, 0x44, 0x69, 0x6d, 0x73, 0x00, 0x00, 0x00,
  0x04, 0x00, 0x00, 0x00, 0x01, 0x00, 0x00, 0x00, 0x01, 0x00, 0x00, 0x00,
  0x19, 0x00, 0x00, 0x00, 0x20, 0x00, 0x00, 0x00, 0xba, 0xf0, 0xff, 0xff,
  0x00, 0x00, 0x00, 0x01, 0x18, 0x00, 0x00, 0x00, 0x24, 0x00, 0x00, 0x00,
  0x44, 0x00, 0x00, 0x00, 0x17, 0x00, 0x00, 0x00, 0x00, 0x00, 0x00, 0x09,
  0x60, 0x00, 0x00, 0x00, 0x03, 0x00, 0x00, 0x00, 0xff, 0xff, 0xff, 0xff,
  0x19, 0x00, 0x00, 0x00, 0x20, 0x00, 0x00, 0x00, 0xa4, 0xf0, 0xff, 0xff,
  0x08, 0x00, 0x00, 0x00, 0x14, 0x00, 0x00, 0x00, 0x01, 0x00, 0x00, 0x00,
  0x80, 0xff, 0xff, 0xff, 0xff, 0xff, 0xff, 0xff, 0x00, 0x00, 0x00, 0x00,
  0x01, 0x00, 0x00, 0x00, 0x0c, 0xac, 0x57, 0x3e, 0x21, 0x00, 0x00, 0x00,
  0x73, 0x65, 0x71, 0x75, 0x65, 0x6e, 0x74, 0x69, 0x61, 0x6c, 0x2f, 0x6d,
  0x61, 0x78, 0x5f, 0x70, 0x6f, 0x6f, 0x6c, 0x69, 0x6e, 0x67, 0x31, 0x64,
  0x2f, 0x53, 0x71, 0x75, 0x65, 0x65, 0x7a, 0x65, 0x31, 0x00, 0x00, 0x00,
  0x03, 0x00, 0x00, 0x00, 0x01, 0x00, 0x00, 0x00, 0x19, 0x00, 0x00, 0x00,
  0x20, 0x00, 0x00, 0x00, 0x46, 0xf1, 0xff, 0xff, 0x00, 0x00, 0x00, 0x01,
  0x18, 0x00, 0x00, 0x00, 0x28, 0x00, 0x00, 0x00, 0x44, 0x00, 0x00, 0x00,
  0x16, 0x00, 0x00, 0x00, 0x00, 0x00, 0x00, 0x09, 0x60, 0x00, 0x00, 0x00,
  0x04, 0x00, 0x00, 0x00, 0xff, 0xff, 0xff, 0xff, 0x19, 0x00, 0x00, 0x00,
  0x01, 0x00, 0x00, 0x00, 0x20, 0x00, 0x00, 0x00, 0x34, 0xf1, 0xff, 0xff,
  0x08, 0x00, 0x00, 0x00, 0x10, 0x00, 0x00, 0x00, 0x01, 0x00, 0x00, 0x00,
  0x80, 0xff, 0xff, 0xff, 0xff, 0xff, 0xff, 0xff, 0x01, 0x00, 0x00, 0x00,
  0x0c, 0xac, 0x57, 0x3e, 0x20, 0x00, 0x00, 0x00, 0x73, 0x65, 0x71, 0x75,
  0x65, 0x6e, 0x74, 0x69, 0x61, 0x6c, 0x2f, 0x6d, 0x61, 0x78, 0x5f, 0x70,
  0x6f, 0x6f, 0x6c, 0x69, 0x6e, 0x67, 0x31, 0x64, 0x2f, 0x4d, 0x61, 0x78,
  0x50, 0x6f, 0x6f, 0x6c, 0x00, 0x00, 0x00, 0x00, 0x04, 0x00, 0x00, 0x00,
  0x01, 0x00, 0x00, 0x00, 0x19, 0x00, 0x00, 0x00, 0x01, 0x00, 0x00, 0x00,
  0x20, 0x00, 0x00, 0x00, 0xd6, 0xf1, 0xff, 0xff, 0x00, 0x00, 0x00, 0x01,
  0x18, 0x00, 0x00, 0x00, 0x28, 0x00, 0x00, 0x00, 0x48, 0x00, 0x00, 0x00,
  0x15, 0x00, 0x00, 0x00, 0x00, 0x00, 0x00, 0x09, 0x64, 0x00, 0x00, 0x00,
  0x04, 0x00, 0x00, 0x00, 0xff, 0xff, 0xff, 0xff, 0x33, 0x00, 0x00, 0x00,
  0x01, 0x00, 0x00, 0x00, 0x20, 0x00, 0x00, 0x00, 0xc4, 0xf1, 0xff, 0xff,
  0x08, 0x00, 0x00, 0x00, 0x14, 0x00, 0x00, 0x00, 0x01, 0x00, 0x00, 0x00,
  0x80, 0xff, 0xff, 0xff, 0xff, 0xff, 0xff, 0xff, 0x00, 0x00, 0x00, 0x00,
  0x01, 0x00, 0x00, 0x00, 0x0c, 0xac, 0x57, 0x3e, 0x23, 0x00, 0x00, 0x00,
  0x73, 0x65, 0x71, 0x75, 0x65, 0x6e, 0x74, 0x69, 0x61, 0x6c, 0x2f, 0x6d,
  0x61, 0x78, 0x5f, 0x70, 0x6f, 0x6f, 0x6c, 0x69, 0x6e, 0x67, 0x31, 0x64,
  0x2f, 0x45, 0x78, 0x70, 0x61, 0x6e, 0x64, 0x44, 0x69, 0x6d, 0x73, 0x00,
  0x04, 0x00, 0x00, 0x00, 0x01, 0x00, 0x00, 0x00, 0x33, 0x00, 0x00, 0x00,
  0x01, 0x00, 0x00, 0x00, 0x20, 0x00, 0x00, 0x00, 0x6a, 0xf2, 0xff, 0xff,
  0x00, 0x00, 0x00, 0x01, 0x18, 0x00, 0x00, 0x00, 0x24, 0x00, 0x00, 0x00,
  0x44, 0x00, 0x00, 0x00, 0x14, 0x00, 0x00, 0x00, 0x00, 0x00, 0x00, 0x09,
  0xb8, 0x00, 0x00, 0x00, 0x03, 0x00, 0x00, 0x00, 0xff, 0xff, 0xff, 0xff,
  0x33, 0x00, 0x00, 0x00, 0x20, 0x00, 0x00, 0x00, 0x54, 0xf2, 0xff, 0xff,
  0x08, 0x00, 0x00, 0x00, 0x14, 0x00, 0x00, 0x00, 0x01, 0x00, 0x00, 0x00,
  0x80, 0xff, 0xff, 0xff, 0xff, 0xff, 0xff, 0xff, 0x00, 0x00, 0x00, 0x00,
  0x01, 0x00, 0x00, 0x00, 0x0c, 0xac, 0x57, 0x3e, 0x7a, 0x00, 0x00, 0x00,
  0x73, 0x65, 0x71, 0x75, 0x65, 0x6e, 0x74, 0x69, 0x61, 0x6c, 0x2f, 0x63,
  0x6f, 0x6e, 0x76, 0x31, 0x64, 0x2f, 0x52, 0x65, 0x6c, 0x75, 0x3b, 0x73,
  0x65, 0x71, 0x75, 0x65, 0x6e, 0x74, 0x69, 0x61, 0x6c, 0x2f, 0x63, 0x6f,
  0x6e, 0x76, 0x31, 0x64, 0x2f, 0x42, 0x69, 0x61, 0x73, 0x41, 0x64, 0x64,
  0x3b, 0x73, 0x65, 0x71, 0x75, 0x65, 0x6e, 0x74, 0x69, 0x61, 0x6c, 0x2f,
  0x63, 0x6f, 0x6e, 0x76, 0x31, 0x64, 0x2f, 0x43, 0x6f, 0x6e, 0x76, 0x31,
  0x44, 0x2f, 0x53, 0x71, 0x75, 0x65, 0x65, 0x7a, 0x65, 0x3b, 0x73, 0x65,
  0x71, 0x75, 0x65, 0x6e, 0x74, 0x69, 0x61, 0x6c, 0x2f, 0x63, 0x6f, 0x6e,
  0x76, 0x31, 0x64, 0x2f, 0x42, 0x69, 0x61, 0x73, 0x41, 0x64, 0x64, 0x2f,
  0x52, 0x65, 0x61, 0x64, 0x56, 0x61, 0x72, 0x69, 0x61, 0x62, 0x6c, 0x65,
  0x4f, 0x70, 0x00, 0x00, 0x03, 0x00, 0x00, 0x00, 0x01, 0x00, 0x00, 0x00,
  0x33, 0x00, 0x00, 0x00, 0x20, 0x00, 0x00, 0x00, 0x4e, 0xf3, 0xff, 0xff,
  0x00, 0x00, 0x00, 0x01, 0x18, 0x00, 0x00, 0x00, 0x28, 0x00, 0x00, 0x00,
  0x44, 0x00, 0x00, 0x00, 0x13, 0x00, 0x00, 0x00, 0x00, 0x00, 0x00, 0x09,
  0xd0, 0x00, 0x00, 0x00, 0x04, 0x00, 0x00, 0x00, 0xff, 0xff, 0xff, 0xff,
  0x01, 0x00, 0x00, 0x00, 0x33, 0x00, 0x00, 0x00, 0x20, 0x00, 0x00, 0x00,
  0x3c, 0xf3, 0xff, 0xff, 0x08, 0x00, 0x00, 0x00, 0x10, 0x00, 0x00, 0x00,
  0x01, 0x00, 0x00, 0x00, 0x80, 0xff, 0xff, 0xff, 0xff, 0xff, 0xff, 0xff,
  0x01, 0x00, 0x00, 0x00, 0x0c, 0xac, 0x57, 0x3e, 0x93, 0x00, 0x00, 0x00,
  0x73, 0x65, 0x71, 0x75, 0x65, 0x6e, 0x74, 0x69, 0x61, 0x6c, 0x2f, 0x63,
  0x6f, 0x6e, 0x76, 0x31, 0x64, 0x2f, 0x52, 0x65, 0x6c, 0x75, 0x3b, 0x73,
  0x65, 0x71, 0x75, 0x65, 0x6e, 0x74, 0x69, 0x61, 0x6c, 0x2f, 0x63, 0x6f,
  0x6e, 0x76, 0x31, 0x64, 0x2f, 0x42, 0x69, 0x61, 0x73, 0x41, 0x64, 0x64,
  0x3b, 0x73, 0x65, 0x71, 0x75, 0x65, 0x6e, 0x74, 0x69, 0x61, 0x6c, 0x2f,
  0x63, 0x6f, 0x6e, 0x76, 0x31, 0x64, 0x2f, 0x43, 0x6f, 0x6e, 0x76, 0x31,
  0x44, 0x2f, 0x53, 0x71, 0x75, 0x65, 0x65, 0x7a, 0x65, 0x3b, 0x73, 0x65,
  0x71, 0x75, 0x65, 0x6e, 0x74, 0x69, 0x61, 0x6c, 0x2f, 0x63, 0x6f, 0x6e,
  0x76, 0x31, 0x64, 0x2f, 0x42, 0x69, 0x61, 0x73, 0x41, 0x64, 0x64, 0x2f,
  0x52, 0x65, 0x61, 0x64, 0x56, 0x61, 0x72, 0x69, 0x61, 0x62, 0x6c, 0x65,
  0x4f, 0x70, 0x3b, 0x73, 0x65, 0x71, 0x75, 0x65, 0x6e, 0x74, 0x69, 0x61,
  0x6c, 0x2f, 0x63, 0x6f, 0x6e, 0x76, 0x31, 0x64, 0x2f, 0x43, 0x6f, 0x6e,
  0x76, 0x31, 0x44, 0x00, 0x04, 0x00, 0x00, 0x00, 0x01, 0x00, 0x00, 0x00,
  0x01, 0x00, 0x00, 0x00, 0x33, 0x00, 0x00, 0x00, 0x20, 0x00, 0x00, 0x00,
  0x4e, 0xf4, 0xff, 0xff, 0x00, 0x00, 0x00, 0x01, 0x18, 0x00, 0x00, 0x00,
  0x28, 0x00, 0x00, 0x00, 0x44, 0x00, 0x00, 0x00, 0x12, 0x00, 0x00, 0x00,
  0x00, 0x00, 0x00, 0x09, 0x60, 0x00, 0x00, 0x00, 0x04, 0x00, 0x00, 0x00,
  0xff, 0xff, 0xff, 0xff, 0x01, 0x00, 0x00, 0x00, 0x33, 0x00, 0x00, 0x00,
  0x0d, 0x00, 0x00, 0x00, 0x3c, 0xf4, 0xff, 0xff, 0x08, 0x00, 0x00, 0x00,
  0x10, 0x00, 0x00, 0x00, 0x01, 0x00, 0x00, 0x00, 0x3a, 0x00, 0x00, 0x00,
  0x00, 0x00, 0x00, 0x00, 0x01, 0x00, 0x00, 0x00, 0x8c, 0x11, 0xbb, 0x3f,
  0x23, 0x00, 0x00, 0x00, 0x73, 0x65, 0x71, 0x75, 0x65, 0x6e, 0x74, 0x69,
  0x61, 0x6c, 0x2f, 0x63, 0x6f, 0x6e, 0x76, 0x31, 0x64, 0x2f, 0x43, 0x6f,
  0x6e, 0x76, 0x31, 0x44, 0x2f, 0x45, 0x78, 0x70, 0x61, 0x6e, 0x64, 0x44,
  0x69, 0x6d, 0x73, 0x00, 0x04, 0x00, 0x00, 0x00, 0x01, 0x00, 0x00, 0x00,
  0x01, 0x00, 0x00, 0x00, 0x33, 0x00, 0x00, 0x00, 0x0d, 0x00, 0x00, 0x00,
  0x4a, 0xf5, 0xff, 0xff, 0x00, 0x00, 0x00, 0x01, 0x14, 0x00, 0x00, 0x00,
  0xa8, 0x01, 0x00, 0x00, 0x11, 0x00, 0x00, 0x00, 0x00, 0x00, 0x00, 0x09,
  0xbc, 0x01, 0x00, 0x00, 0xb4, 0xf4, 0xff, 0xff, 0x08, 0x00, 0x00, 0x00,
  0x0c, 0x01, 0x00, 0x00, 0x20, 0x00, 0x00, 0x00, 0x00, 0x00, 0x00, 0x00,
  0x00, 0x00, 0x00, 0x00, 0x00, 0x00, 0x00, 0x00, 0x00, 0x00, 0x00, 0x00,
  0x00, 0x00, 0x00, 0x00, 0x00, 0x00, 0x00, 0x00, 0x00, 0x00, 0x00, 0x00,
  0x00, 0x00, 0x00, 0x00, 0x00, 0x00, 0x00, 0x00, 0x00, 0x00, 0x00, 0x00,
  0x00, 0x00, 0x00, 0x00, 0x00, 0x00, 0x00, 0x00, 0x00, 0x00, 0x00, 0x00,
  0x00, 0x00, 0x00, 0x00, 0x00, 0x00, 0x00, 0x00, 0x00, 0x00, 0x00, 0x00,
  0x00, 0x00, 0x00, 0x00, 0x00, 0x00, 0x00, 0x00, 0x00, 0x00, 0x00, 0x00,
  0x00, 0x00, 0x00, 0x00, 0x00, 0x00, 0x00, 0x00, 0x00, 0x00, 0x00, 0x00,
  0x00, 0x00, 0x00, 0x00, 0x00, 0x00, 0x00, 0x00, 0x00, 0x00, 0x00, 0x00,
  0x00, 0x00, 0x00, 0x00, 0x00, 0x00, 0x00, 0x00, 0x00, 0x00, 0x00, 0x00,
  0x00, 0x00, 0x00, 0x00, 0x00, 0x00, 0x00, 0x00, 0x00, 0x00, 0x00, 0x00,
  0x00, 0x00, 0x00, 0x00, 0x00, 0x00, 0x00, 0x00, 0x00, 0x00, 0x00, 0x00,
  0x00, 0x00, 0x00, 0x00, 0x00, 0x00, 0x00, 0x00, 0x00, 0x00, 0x00, 0x00,
  0x00, 0x00, 0x00, 0x00, 0x00, 0x00, 0x00, 0x00, 0x00, 0x00, 0x00, 0x00,
  0x00, 0x00, 0x00, 0x00, 0x00, 0x00, 0x00, 0x00, 0x00, 0x00, 0x00, 0x00,
  0x00, 0x00, 0x00, 0x00, 0x00, 0x00, 0x00, 0x00, 0x00, 0x00, 0x00, 0x00,
  0x00, 0x00, 0x00, 0x00, 0x00, 0x00, 0x00, 0x00, 0x00, 0x00, 0x00, 0x00,
  0x00, 0x00, 0x00, 0x00, 0x00, 0x00, 0x00, 0x00, 0x00, 0x00, 0x00, 0x00,
  0x00, 0x00, 0x00, 0x00, 0x00, 0x00, 0x00, 0x00, 0x00, 0x00, 0x00, 0x00,
  0x00, 0x00, 0x00, 0x00, 0x00, 0x00, 0x00, 0x00, 0x00, 0x00, 0x00, 0x00,
  0x00, 0x00, 0x00, 0x00, 0x00, 0x00, 0x00, 0x00, 0x00, 0x00, 0x00, 0x00,
  0x00, 0x00, 0x00, 0x00, 0x00, 0x00, 0x00, 0x00, 0x00, 0x00, 0x00, 0x00,
  0x00, 0x00, 0x00, 0x00, 0x20, 0x00, 0x00, 0x00, 0xca, 0x94, 0x92, 0x3b,
  0xdc, 0x33, 0xb8, 0x3b, 0x93, 0xfe, 0xbb, 0x3b, 0xfa, 0xb5, 0x92, 0x3b,
  0xbc, 0x49, 0x9d, 0x3b, 0xd8, 0x6a, 0x79, 0x3b, 0x6f, 0x25, 0x7e, 0x3b,
  0xbf, 0x27, 0x34, 0x3b, 0xde, 0x09, 0x92, 0x3b, 0x0a, 0xde, 0xaa, 0x3b,
  0x89, 0xd4, 0xbd, 0x3b, 0xf6, 0x0f, 0xa1, 0x3b, 0xa4, 0x8b, 0x91, 0x3b,
  0x8c, 0x1b, 0x87, 0x3b, 0x52, 0xab, 0xa3, 0x3b, 0xe0, 0x09, 0x8a, 0x3b,
  0x13, 0xce, 0xac, 0x3b, 0xef, 0x7c, 0xbb, 0x3b, 0x49, 0x10, 0x4a, 0x3b,
  0x96, 0x54, 0x7a, 0x3b, 0x35, 0x62, 0xa3, 0x3b, 0x03, 0x38, 0x95, 0x3b,
  0x60, 0x06, 0xb8, 0x3b, 0x19, 0x37, 0xcd, 0x3b, 0xc7, 0x40, 0xb3, 0x3b,
  0x70, 0xdb, 0x8c, 0x3b, 0x92, 0x6d, 0x8d, 0x3b, 0x69, 0x26, 0x6a, 0x3b,
  0x77, 0xd0, 0x8f, 0x3b, 0xa1, 0x2b, 0x6c, 0x3b, 0x6a, 0xf9, 0x8f, 0x3b,
  0x89, 0x99, 0xc0, 0x3b, 0x18, 0x00, 0x00, 0x00, 0x73, 0x65, 0x71, 0x75,
  0x65, 0x6e, 0x74, 0x69, 0x61, 0x6c, 0x2f, 0x63, 0x6f, 0x6e, 0x76, 0x31,
  0x64, 0x2f, 0x43, 0x6f, 0x6e, 0x76, 0x31, 0x44, 0x00, 0x00, 0x00, 0x00,
  0x04, 0x00, 0x00, 0x00, 0x20, 0x00, 0x00, 0x00, 0x01, 0x00, 0x00, 0x00,
  0x03, 0x00, 0x00, 0x00, 0x0d, 0x00, 0x00, 0x00, 0x32, 0xf7, 0xff, 0xff,
  0x00, 0x00, 0x00, 0x01, 0x14, 0x00, 0x00, 0x00, 0xa4, 0x01, 0x00, 0x00,
  0x10, 0x00, 0x00, 0x00, 0x00, 0x00, 0x00, 0x02, 0xc8, 0x01, 0x00, 0x00,
  0x9c, 0xf6, 0xff, 0xff, 0x08, 0x00, 0x00, 0x00, 0x08, 0x01, 0x00, 0x00,
  0x20, 0x00, 0x00, 0x00, 0x00, 0x00, 0x00, 0x00, 0x00, 0x00, 0x00, 0x00,
  0x00, 0x00, 0x00, 0x00, 0x00, 0x00, 0x00, 0x00, 0x00, 0x00, 0x00, 0x00,
  0x00, 0x00, 0x00, 0x00, 0x00, 0x00, 0x00, 0x00, 0x00, 0x00, 0x00, 0x00,
  0x00, 0x00, 0x00, 0x00, 0x00, 0x00, 0x00, 0x00, 0x00, 0x00, 0x00, 0x00,
  0x00, 0x00, 0x00, 0x00, 0x00, 0x00, 0x00, 0x00, 0x00, 0x00, 0x00, 0x00,
  0x00, 0x00, 0x00, 0x00, 0x00, 0x00, 0x00, 0x00, 0x00, 0x00, 0x00, 0x00,
  0x00, 0x00, 0x00, 0x00, 0x00, 0x00, 0x00, 0x00, 0x00, 0x00, 0x00, 0x00,
  0x00, 0x00, 0x00, 0x00, 0x00, 0x00, 0x00, 0x00, 0x00, 0x00, 0x00, 0x00,
  0x00, 0x00, 0x00, 0x00, 0x00, 0x00, 0x00, 0x00, 0x00, 0x00, 0x00, 0x00,
  0x00, 0x00, 0x00, 0x00, 0x00, 0x00, 0x00, 0x00, 0x00, 0x00, 0x00, 0x00,
  0x00, 0x00, 0x00, 0x00, 0x00, 0x00, 0x00, 0x00, 0x00, 0x00, 0x00, 0x00,
  0x00, 0x00, 0x00, 0x00, 0x00, 0x00, 0x00, 0x00, 0x00, 0x00, 0x00, 0x00,
  0x00, 0x00, 0x00, 0x00, 0x00, 0x00, 0x00, 0x00, 0x00, 0x00, 0x00, 0x00,
  0x00, 0x00, 0x00, 0x00, 0x00, 0x00, 0x00, 0x00, 0x00, 0x00, 0x00, 0x00,
  0x00, 0x00, 0x00, 0x00, 0x00, 0x00, 0x00, 0x00, 0x00, 0x00, 0x00, 0x00,
  0x00, 0x00, 0x00, 0x00, 0x00, 0x00, 0x00, 0x00, 0x00, 0x00, 0x00, 0x00,
  0x00, 0x00, 0x00, 0x00, 0x00, 0x00, 0x00, 0x00, 0x00, 0x00, 0x00, 0x00,
  0x00, 0x00, 0x00, 0x00, 0x00, 0x00, 0x00, 0x00, 0x00, 0x00, 0x00, 0x00,
  0x00, 0x00, 0x00, 0x00, 0x00, 0x00, 0x00, 0x00, 0x00, 0x00, 0x00, 0x00,
  0x00, 0x00, 0x00, 0x00, 0x00, 0x00, 0x00, 0x00, 0x00, 0x00, 0x00, 0x00,
  0x00, 0x00, 0x00, 0x00, 0x00, 0x00, 0x00, 0x00, 0x00, 0x00, 0x00, 0x00,
  0x00, 0x00, 0x00, 0x00, 0x00, 0x00, 0x00, 0x00, 0x20, 0x00, 0x00, 0x00,
  0x77, 0x39, 0xd6, 0x3b, 0x82, 0x9a, 0x06, 0x3c, 0xd8, 0x5f, 0x09, 0x3c,
  0xf8, 0x69, 0xd6, 0x3b, 0x48, 0xdf, 0xe5, 0x3b, 0x24, 0x42, 0xb6, 0x3b,
  0xc4, 0xb6, 0xb9, 0x3b, 0x62, 0xa5, 0x83, 0x3b, 0x6f, 0x6e, 0xd5, 0x3b,
  0xcf, 0xb7, 0xf9, 0x3b, 0x43, 0xb7, 0x0a, 0x3c, 0x66, 0x63, 0xeb, 0x3b,
  0xf5, 0xb5, 0xd4, 0x3b, 0xc4, 0x74, 0xc5, 0x3b, 0xba, 0x32, 0xef, 0x3b,
  0x5a, 0xbd, 0xc9, 0x3b, 0xc0, 0x8c, 0xfc, 0x3b, 0x1c, 0x01, 0x09, 0x3c,
  0xbf, 0xa7, 0x93, 0x3b, 0xf2, 0xec, 0xb6, 0x3b, 0xdf, 0xc7, 0xee, 0x3b,
  0x49, 0x14, 0xda, 0x3b, 0x45, 0x79, 0x06, 0x3c, 0x50, 0xf5, 0x15, 0x3c,
  0x9b, 0xfc, 0x02, 0x3c, 0xe5, 0xdb, 0xcd, 0x3b, 0x77, 0xb1, 0xce, 0x3b,
  0x1b, 0x1a, 0xab, 0x3b, 0x45, 0x2e, 0xd2, 0x3b, 0x0f, 0x94, 0xac, 0x3b,
  0x1d, 0x6a, 0xd2, 0x3b, 0x5b, 0xbd, 0x0c, 0x3c, 0x28, 0x00, 0x00, 0x00,
  0x73, 0x65, 0x71, 0x75, 0x65, 0x6e, 0x74, 0x69, 0x61, 0x6c, 0x2f, 0x63,
  0x6f, 0x6e, 0x76, 0x31, 0x64, 0x2f, 0x42, 0x69, 0x61, 0x73, 0x41, 0x64,
  0x64, 0x2f, 0x52, 0x65, 0x61, 0x64, 0x56, 0x61, 0x72, 0x69, 0x61, 0x62,
  0x6c, 0x65, 0x4f, 0x70, 0x00, 0x00, 0x00, 0x00, 0x01, 0x00, 0x00, 0x00,
  0x20, 0x00, 0x00, 0x00, 0x1a, 0xf9, 0xff, 0xff, 0x00, 0x00, 0x00, 0x01,
  0x14, 0x00, 0x00, 0x00, 0xe8, 0x00, 0x00, 0x00, 0x0f, 0x00, 0x00, 0x00,
  0x00, 0x00, 0x00, 0x09, 0xfc, 0x00, 0x00, 0x00, 0x84, 0xf8, 0xff, 0xff,
  0x08, 0x00, 0x00, 0x00, 0x8c, 0x00, 0x00, 0x00, 0x10, 0x00, 0x00, 0x00,
  0x00, 0x00, 0x00, 0x00, 0x00, 0x00, 0x00, 0x00, 0x00, 0x00, 0x00, 0x00,
  0x00, 0x00, 0x00, 0x00, 0x00, 0x00, 0x00, 0x00, 0x00, 0x00, 0x00, 0x00,
  0x00, 0x00, 0x00, 0x00, 0x00, 0x00, 0x00, 0x00, 0x00, 0x00, 0x00, 0x00,
  0x00, 0x00, 0x00, 0x00, 0x00, 0x00, 0x00, 0x00, 0x00, 0x00, 0x00, 0x00,
  0x00, 0x00, 0x00, 0x00, 0x00, 0x00, 0x00, 0x00, 0x00, 0x00, 0x00, 0x00,
  0x00, 0x00, 0x00, 0x00, 0x00, 0x00, 0x00, 0x00, 0x00, 0x00, 0x00, 0x00,
  0x00, 0x00, 0x00, 0x00, 0x00, 0x00, 0x00, 0x00, 0x00, 0x00, 0x00, 0x00,
  0x00, 0x00, 0x00, 0x00, 0x00, 0x00, 0x00, 0x00, 0x00, 0x00, 0x00, 0x00,
  0x00, 0x00, 0x00, 0x00, 0x00, 0x00, 0x00, 0x00, 0x00, 0x00, 0x00, 0x00,
  0x00, 0x00, 0x00, 0x00, 0x00, 0x00, 0x00, 0x00, 0x00, 0x00, 0x00, 0x00,
  0x00, 0x00, 0x00, 0x00, 0x00, 0x00, 0x00, 0x00, 0x00, 0x00, 0x00, 0x00,
  0x10, 0x00, 0x00, 0x00, 0x84, 0x29, 0x47, 0x3b, 0xcf, 0xe4, 0x6e, 0x3b,
  0xe6, 0xa7, 0x7c, 0x3b, 0x12, 0xc8, 0x68, 0x3b, 0x50, 0xb5, 0x7a, 0x3b,
  0x28, 0x15, 0xbd, 0x3b, 0x54, 0xd3, 0x87, 0x3b, 0xf0, 0xcf, 0x61, 0x3b,
  0x27, 0x64, 0xac, 0x3b, 0x56, 0x0a, 0x8f, 0x3b, 0xd2, 0xa6, 0x7f, 0x3b,
  0xe3, 0xcd, 0x26, 0x3b, 0x69, 0x8e, 0x96, 0x3b, 0xd0, 0x26, 0x2a, 0x3b,
  0x19, 0x09, 0x9a, 0x3b, 0xe7, 0x82, 0x9a, 0x3b, 0x1a, 0x00, 0x00, 0x00,
  0x73, 0x65, 0x71, 0x75, 0x65, 0x6e, 0x74, 0x69, 0x61, 0x6c, 0x2f, 0x63,
  0x6f, 0x6e, 0x76, 0x31, 0x64, 0x5f, 0x31, 0x2f, 0x43, 0x6f, 0x6e, 0x76,
  0x31, 0x44, 0x00, 0x00, 0x04, 0x00, 0x00, 0x00, 0x10, 0x00, 0x00, 0x00,
  0x01, 0x00, 0x00, 0x00, 0x03, 0x00, 0x00, 0x00, 0x20, 0x00, 0x00, 0x00,
  0x42, 0xfa, 0xff, 0xff, 0x00, 0x00, 0x00, 0x01, 0x14, 0x00, 0x00, 0x00,
  0xe4, 0x00, 0x00, 0x00, 0x0e, 0x00, 0x00, 0x00, 0x00, 0x00, 0x00, 0x02,
  0x08, 0x01, 0x00, 0x00, 0xac, 0xf9, 0xff, 0xff, 0x08, 0x00, 0x00, 0x00,
  0x88, 0x00, 0x00, 0x00, 0x10, 0x00, 0x00, 0x00, 0x00, 0x00, 0x00, 0x00,
  0x00, 0x00, 0x00, 0x00, 0x00, 0x00, 0x00, 0x00, 0x00, 0x00, 0x00, 0x00,
  0x00, 0x00, 0x00, 0x00, 0x00, 0x00, 0x00, 0x00, 0x00, 0x00, 0x00, 0x00,
  0x00, 0x00, 0x00, 0x00, 0x00, 0x00, 0x00, 0x00, 0x00, 0x00, 0x00, 0x00,
  0x00, 0x00, 0x00, 0x00, 0x00, 0x00, 0x00, 0x00, 0x00, 0x00, 0x00, 0x00,
  0x00, 0x00, 0x00, 0x00, 0x00, 0x00, 0x00, 0x00, 0x00, 0x00, 0x00, 0x00,
  0x00, 0x00, 0x00, 0x00, 0x00, 0x00, 0x00, 0x00, 0x00, 0x00, 0x00, 0x00,
  0x00, 0x00, 0x00, 0x00, 0x00, 0x00, 0x00, 0x00, 0x00, 0x00, 0x00, 0x00,
  0x00, 0x00, 0x00, 0x00, 0x00, 0x00, 0x00, 0x00, 0x00, 0x00, 0x00, 0x00,
  0x00, 0x00, 0x00, 0x00, 0x00, 0x00, 0x00, 0x00, 0x00, 0x00, 0x00, 0x00,
  0x00, 0x00, 0x00, 0x00, 0x00, 0x00, 0x00, 0x00, 0x00, 0x00, 0x00, 0x00,
  0x00, 0x00, 0x00, 0x00, 0x10, 0x00, 0x00, 0x00, 0xb7, 0xc9, 0x27, 0x3a,
  0xb7, 0x42, 0x49, 0x3a, 0xcf, 0xda, 0x54, 0x3a, 0x78, 0x1c, 0x44, 0x3a,
  0xc4, 0x36, 0x53, 0x3a, 0xd8, 0x4b, 0x9f, 0x3a, 0x88, 0xdb, 0x64, 0x3a,
  0x65, 0x3d, 0x3e, 0x3a, 0xf8, 0x3b, 0x91, 0x3a, 0xa0, 0x03, 0x71, 0x3a,
  0xea, 0x60, 0x57, 0x3a, 0x04, 0x87, 0x0c, 0x3a, 0x92, 0xad, 0x7d, 0x3a,
  0xf3, 0x58, 0x0f, 0x3a, 0x29, 0xc5, 0x81, 0x3a, 0xc7, 0x2b, 0x82, 0x3a,
  0x2a, 0x00, 0x00, 0x00, 0x73, 0x65, 0x71, 0x75, 0x65, 0x6e, 0x74, 0x69,
  0x61, 0x6c, 0x2f, 0x63, 0x6f, 0x6e, 0x76, 0x31, 0x64, 0x5f, 0x31, 0x2f,
  0x42, 0x69, 0x61, 0x73, 0x41, 0x64, 0x64, 0x2f, 0x52, 0x65, 0x61, 0x64,
  0x56, 0x61, 0x72, 0x69, 0x61, 0x62, 0x6c, 0x65, 0x4f, 0x70, 0x00, 0x00,
  0x01, 0x00, 0x00, 0x00, 0x10, 0x00, 0x00, 0x00, 0x6a, 0xfb, 0xff, 0xff,
  0x00, 0x00, 0x00, 0x01, 0x14, 0x00, 0x00, 0x00, 0x88, 0x00, 0x00, 0x00,
  0x0d, 0x00, 0x00, 0x00, 0x00, 0x00, 0x00, 0x09, 0x9c, 0x00, 0x00, 0x00,
  0xd4, 0xfa, 0xff, 0xff, 0x08, 0x00, 0x00, 0x00, 0x4c, 0x00, 0x00, 0x00,
  0x08, 0x00, 0x00, 0x00, 0x00, 0x00, 0x00, 0x00, 0x00, 0x00, 0x00, 0x00,
  0x00, 0x00, 0x00, 0x00, 0x00, 0x00, 0x00, 0x00, 0x00, 0x00, 0x00, 0x00,
  0x00, 0x00, 0x00, 0x00, 0x00, 0x00, 0x00, 0x00, 0x00, 0x00, 0x00, 0x00,
  0x00, 0x00, 0x00, 0x00, 0x00, 0x00, 0x00, 0x00, 0x00, 0x00, 0x00, 0x00,
  0x00, 0x00, 0x00, 0x00, 0x00, 0x00, 0x00, 0x00, 0x00, 0x00, 0x00, 0x00,
  0x00, 0x00, 0x00, 0x00, 0x00, 0x00, 0x00, 0x00, 0x00, 0x00, 0x00, 0x00,
  0x08, 0x00, 0x00, 0x00, 0xc1, 0xaa, 0x14, 0x3b, 0xd0, 0x5d, 0x26, 0x3b,
  0xd0, 0x1b, 0x4d, 0x3b, 0xbb, 0x8e, 0x32, 0x3b, 0x28, 0xe1, 0x15, 0x3b,
  0xf0, 0xfa, 0x32, 0x3b, 0x4f, 0x2f, 0x43, 0x3b, 0xa1, 0xe0, 0x28, 0x3b,
  0x1a, 0x00, 0x00, 0x00, 0x73, 0x65, 0x71, 0x75, 0x65, 0x6e, 0x74, 0x69,
  0x61, 0x6c, 0x2f, 0x63, 0x6f, 0x6e, 0x76, 0x31, 0x64, 0x5f, 0x32, 0x2f,
  0x43, 0x6f, 0x6e, 0x76, 0x31, 0x44, 0x00, 0x00, 0x04, 0x00, 0x00, 0x00,
  0x08, 0x00, 0x00, 0x00, 0x01, 0x00, 0x00, 0x00, 0x03, 0x00, 0x00, 0x00,
  0x10, 0x00, 0x00, 0x00, 0x32, 0xfc, 0xff, 0xff, 0x00, 0x00, 0x00, 0x01,
  0x14, 0x00, 0x00, 0x00, 0x84, 0x00, 0x00, 0x00, 0x0c, 0x00, 0x00, 0x00,
  0x00, 0x00, 0x00, 0x02, 0xa8, 0x00, 0x00, 0x00, 0x9c, 0xfb, 0xff, 0xff,
  0x08, 0x00, 0x00, 0x00, 0x48, 0x00, 0x00, 0x00, 0x08, 0x00, 0x00, 0x00,
  0x00, 0x00, 0x00, 0x00, 0x00, 0x00, 0x00, 0x00, 0x00, 0x00, 0x00, 0x00,
  0x00, 0x00, 0x00, 0x00, 0x00, 0x00, 0x00, 0x00, 0x00, 0x00, 0x00, 0x00,
  0x00, 0x00, 0x00, 0x00, 0x00, 0x00, 0x00, 0x00, 0x00, 0x00, 0x00, 0x00,
  0x00, 0x00, 0x00, 0x00, 0x00, 0x00, 0x00, 0x00, 0x00, 0x00, 0x00, 0x00,
  0x00, 0x00, 0x00, 0x00, 0x00, 0x00, 0x00, 0x00, 0x00, 0x00, 0x00, 0x00,
  0x00, 0x00, 0x00, 0x00, 0x08, 0x00, 0x00, 0x00, 0xbe, 0x92, 0xc3, 0x39,
  0x67, 0xdb, 0xda, 0x39, 0x53, 0xe9, 0x06, 0x3a, 0x02, 0xe5, 0xea, 0x39,
  0x14, 0x2b, 0xc5, 0x39, 0x5b, 0x73, 0xeb, 0x39, 0x4b, 0x62, 0x00, 0x3a,
  0x09, 0x29, 0xde, 0x39, 0x2a, 0x00, 0x00, 0x00, 0x73, 0x65, 0x71, 0x75,
  0x65, 0x6e, 0x74, 0x69, 0x61, 0x6c, 0x2f, 0x63, 0x6f, 0x6e, 0x76, 0x31,
  0x64, 0x5f, 0x32, 0x2f, 0x42, 0x69, 0x61, 0x73, 0x41, 0x64, 0x64, 0x2f,
  0x52, 0x65, 0x61, 0x64, 0x56, 0x61, 0x72, 0x69, 0x61, 0x62, 0x6c, 0x65,
  0x4f, 0x70, 0x00, 0x00, 0x01, 0x00, 0x00, 0x00, 0x08, 0x00, 0x00, 0x00,
  0xfa, 0xfc, 0xff, 0xff, 0x00, 0x00, 0x00, 0x01, 0x14, 0x00, 0x00, 0x00,
  0x34, 0x00, 0x00, 0x00, 0x0b, 0x00, 0x00, 0x00, 0x00, 0x00, 0x00, 0x09,
  0x44, 0x00, 0x00, 0x00, 0x64, 0xfc, 0xff, 0xff, 0x08, 0x00, 0x00, 0x00,
  0x14, 0x00, 0x00, 0x00, 0x01, 0x00, 0x00, 0x00, 0x00, 0x00, 0x00, 0x00,
  0x00, 0x00, 0x00, 0x00, 0x00, 0x00, 0x00, 0x00, 0x01, 0x00, 0x00, 0x00,
  0x71, 0xca, 0x8a, 0x3b, 0x17, 0x00, 0x00, 0x00, 0x73, 0x65, 0x71, 0x75,
  0x65, 0x6e, 0x74, 0x69, 0x61, 0x6c, 0x2f, 0x64, 0x65, 0x6e, 0x73, 0x65,
  0x2f, 0x4d, 0x61, 0x74, 0x4d, 0x75, 0x6c, 0x00, 0x02, 0x00, 0x00, 0x00,
  0x04, 0x00, 0x00, 0x00, 0x30, 0x00, 0x00, 0x00, 0x62, 0xfd, 0xff, 0xff,
  0x00, 0x00, 0x00, 0x01, 0x14, 0x00, 0x00, 0x00, 0x34, 0x00, 0x00, 0x00,
  0x0a, 0x00, 0x00, 0x00, 0x00, 0x00, 0x00, 0x02, 0x54, 0x00, 0x00, 0x00,
  0xcc, 0xfc, 0xff, 0xff, 0x08, 0x00, 0x00, 0x00, 0x14, 0x00, 0x00, 0x00,
  0x01, 0x00, 0x00, 0x00, 0x00, 0x00, 0x00, 0x00, 0x00, 0x00, 0x00, 0x00,
  0x00, 0x00, 0x00, 0x00, 0x01, 0x00, 0x00, 0x00, 0xb8, 0x8a, 0xf7, 0x39,
  0x27, 0x00, 0x00, 0x00, 0x73, 0x65, 0x71, 0x75, 0x65, 0x6e, 0x74, 0x69,
  0x61, 0x6c, 0x2f, 0x64, 0x65, 0x6e, 0x73, 0x65, 0x2f, 0x42, 0x69, 0x61,
  0x73, 0x41, 0x64, 0x64, 0x2f, 0x52, 0x65, 0x61, 0x64, 0x56, 0x61, 0x72,
  0x69, 0x61, 0x62, 0x6c, 0x65, 0x4f, 0x70, 0x00, 0x01, 0x00, 0x00, 0x00,
  0x04, 0x00, 0x00, 0x00, 0xd6, 0xfd, 0xff, 0xff, 0x00, 0x00, 0x00, 0x01,
  0x14, 0x00, 0x00, 0x00, 0x14, 0x00, 0x00, 0x00, 0x09, 0x00, 0x00, 0x00,
  0x00, 0x00, 0x00, 0x02, 0x28, 0x00, 0x00, 0x00, 0xc0, 0xfd, 0xff, 0xff,
  0x18, 0x00, 0x00, 0x00, 0x73, 0x65, 0x71, 0x75, 0x65, 0x6e, 0x74, 0x69,
  0x61, 0x6c, 0x2f, 0x66, 0x6c, 0x61, 0x74, 0x74, 0x65, 0x6e, 0x2f, 0x43,
  0x6f, 0x6e, 0x73, 0x74, 0x00, 0x00, 0x00, 0x00, 0x01, 0x00, 0x00, 0x00,
  0x02, 0x00, 0x00, 0x00, 0x1e, 0xfe, 0xff, 0xff, 0x00, 0x00, 0x00, 0x01,
  0x14, 0x00, 0x00, 0x00, 0x14, 0x00, 0x00, 0x00, 0x08, 0x00, 0x00, 0x00,
  0x00, 0x00, 0x00, 0x02, 0x30, 0x00, 0x00, 0x00, 0x08, 0xfe, 0xff, 0xff,
  0x22, 0x00, 0x00, 0x00, 0x73, 0x65, 0x71, 0x75, 0x65, 0x6e, 0x74, 0x69,
  0x61, 0x6c, 0x2f, 0x63, 0x6f, 0x6e, 0x76, 0x31, 0x64, 0x5f, 0x32, 0x2f,
  0x43, 0x6f, 0x6e, 0x76, 0x31, 0x44, 0x2f, 0x53, 0x71, 0x75, 0x65, 0x65,
  0x7a, 0x65, 0x00, 0x00, 0x01, 0x00, 0x00, 0x00, 0x03, 0x00, 0x00, 0x00,
  0x6e, 0xfe, 0xff, 0xff, 0x00, 0x00, 0x00, 0x01, 0x14, 0x00, 0x00, 0x00,
  0x14, 0x00, 0x00, 0x00, 0x07, 0x00, 0x00, 0x00, 0x00, 0x00, 0x00, 0x02,
  0x30, 0x00, 0x00, 0x00, 0x58, 0xfe, 0xff, 0xff, 0x22, 0x00, 0x00, 0x00,
  0x73, 0x65, 0x71, 0x75, 0x65, 0x6e, 0x74, 0x69, 0x61, 0x6c, 0x2f, 0x6d,
  0x61, 0x78, 0x5f, 0x70, 0x6f, 0x6f, 0x6c, 0x69, 0x6e, 0x67, 0x31, 0x64,
  0x5f, 0x31, 0x2f, 0x53, 0x71, 0x75, 0x65, 0x65, 0x7a, 0x65, 0x00, 0x00,
  0x01, 0x00, 0x00, 0x00, 0x03, 0x00, 0x00, 0x00, 0xbe, 0xfe, 0xff, 0xff,
  0x00, 0x00, 0x00, 0x01, 0x14, 0x00, 0x00, 0x00, 0x14, 0x00, 0x00, 0x00,
  0x06, 0x00, 0x00, 0x00, 0x00, 0x00, 0x00, 0x02, 0x30, 0x00, 0x00, 0x00,
  0xa8, 0xfe, 0xff, 0xff, 0x22, 0x00, 0x00, 0x00, 0x73, 0x65, 0x71, 0x75,
  0x65, 0x6e, 0x74, 0x69, 0x61, 0x6c, 0x2f, 0x63, 0x6f, 0x6e, 0x76, 0x31,
  0x64, 0x5f, 0x31, 0x2f, 0x43, 0x6f, 0x6e, 0x76, 0x31, 0x44, 0x2f, 0x53,
  0x71, 0x75, 0x65, 0x65, 0x7a, 0x65, 0x00, 0x00, 0x01, 0x00, 0x00, 0x00,
  0x03, 0x00, 0x00, 0x00, 0x0e, 0xff, 0xff, 0xff, 0x00, 0x00, 0x00, 0x01,
  0x14, 0x00, 0x00, 0x00, 0x14, 0x00, 0x00, 0x00, 0x05, 0x00, 0x00, 0x00,
  0x00, 0x00, 0x00, 0x02, 0x30, 0x00, 0x00, 0x00, 0xf8, 0xfe, 0xff, 0xff,
  0x20, 0x00, 0x00, 0x00, 0x73, 0x65, 0x71, 0x75, 0x65, 0x6e, 0x74, 0x69,
  0x61, 0x6c, 0x2f, 0x6d, 0x61, 0x78, 0x5f, 0x70, 0x6f, 0x6f, 0x6c, 0x69,
  0x6e, 0x67, 0x31, 0x64, 0x2f, 0x53, 0x71, 0x75, 0x65, 0x65, 0x7a, 0x65,
  0x00, 0x00, 0x00, 0x00, 0x01, 0x00, 0x00, 0x00, 0x03, 0x00, 0x00, 0x00,
  0x5e, 0xff, 0xff, 0xff, 0x00, 0x00, 0x00, 0x01, 0x14, 0x00, 0x00, 0x00,
  0x14, 0x00, 0x00, 0x00, 0x04, 0x00, 0x00, 0x00, 0x00, 0x00, 0x00, 0x02,
  0x34, 0x00, 0x00, 0x00, 0x48, 0xff, 0xff, 0xff, 0x27, 0x00, 0x00, 0x00,
  0x73, 0x65, 0x71, 0x75, 0x65, 0x6e, 0x74, 0x69, 0x61, 0x6c, 0x2f, 0x6d,
  0x61, 0x78, 0x5f, 0x70, 0x6f, 0x6f, 0x6c, 0x69, 0x6e, 0x67, 0x31, 0x64,
  0x2f, 0x45, 0x78, 0x70, 0x61, 0x6e, 0x64, 0x44, 0x69, 0x6d, 0x73, 0x2f,
  0x64, 0x69, 0x6d, 0x00, 0x00, 0x00, 0x00, 0x00, 0xae, 0xff, 0xff, 0xff,
  0x00, 0x00, 0x00, 0x01, 0x14, 0x00, 0x00, 0x00, 0x14, 0x00, 0x00, 0x00,
  0x03, 0x00, 0x00, 0x00, 0x00, 0x00, 0x00, 0x02, 0x30, 0x00, 0x00, 0x00,
  0x98, 0xff, 0xff, 0xff, 0x20, 0x00, 0x00, 0x00, 0x73, 0x65, 0x71, 0x75,
  0x65, 0x6e, 0x74, 0x69, 0x61, 0x6c, 0x2f, 0x63, 0x6f, 0x6e, 0x76, 0x31,
  0x64, 0x2f, 0x43, 0x6f, 0x6e, 0x76, 0x31, 0x44, 0x2f, 0x53, 0x71, 0x75,
  0x65, 0x65, 0x7a, 0x65, 0x00, 0x00, 0x00, 0x00, 0x01, 0x00, 0x00, 0x00,
  0x03, 0x00, 0x00, 0x00, 0x00, 0x00, 0x16, 0x00, 0x1c, 0x00, 0x18, 0x00,
  0x17, 0x00, 0x10, 0x00, 0x0c, 0x00, 0x08, 0x00, 0x00, 0x00, 0x00, 0x00,
  0x00, 0x00, 0x07, 0x00, 0x16, 0x00, 0x00, 0x00, 0x00, 0x00, 0x00, 0x01,
  0x18, 0x00, 0x00, 0x00, 0x18, 0x00, 0x00, 0x00, 0x02, 0x00, 0x00, 0x00,
  0x00, 0x00, 0x00, 0x02, 0x38, 0x00, 0x00, 0x00, 0x04, 0x00, 0x04, 0x00,
  0x04, 0x00, 0x00, 0x00, 0x27, 0x00, 0x00, 0x00, 0x73, 0x65, 0x71, 0x75,
  0x65, 0x6e, 0x74, 0x69, 0x61, 0x6c, 0x2f, 0x63, 0x6f, 0x6e, 0x76, 0x31,
  0x64, 0x2f, 0x43, 0x6f, 0x6e, 0x76, 0x31, 0x44, 0x2f, 0x45, 0x78, 0x70,
  0x61, 0x6e, 0x64, 0x44, 0x69, 0x6d, 0x73, 0x2f, 0x64, 0x69, 0x6d, 0x00,
  0x00, 0x00, 0x00, 0x00, 0x00, 0x00, 0x16, 0x00, 0x20, 0x00, 0x1c, 0x00,
  0x1b, 0x00, 0x14, 0x00, 0x10, 0x00, 0x0c, 0x00, 0x00, 0x00, 0x00, 0x00,
  0x08, 0x00, 0x07, 0x00, 0x16, 0x00, 0x00, 0x00, 0x00, 0x00, 0x00, 0x01,
  0x18, 0x00, 0x00, 0x00, 0x30, 0x00, 0x00, 0x00, 0x4c, 0x00, 0x00, 0x00,
  0x01, 0x00, 0x00, 0x00, 0x00, 0x00, 0x00, 0x09, 0x64, 0x00, 0x00, 0x00,
  0x03, 0x00, 0x00, 0x00, 0xff, 0xff, 0xff, 0xff, 0x33, 0x00, 0x00, 0x00,
  0x0d, 0x00, 0x00, 0x00, 0x0c, 0x00, 0x0c, 0x00, 0x00, 0x00, 0x00, 0x00,
  0x08, 0x00, 0x04, 0x00, 0x0c, 0x00, 0x00, 0x00, 0x08, 0x00, 0x00, 0x00,
  0x10, 0x00, 0x00, 0x00, 0x01, 0x00, 0x00, 0x00, 0x3a, 0x00, 0x00, 0x00,
  0x00, 0x00, 0x00, 0x00, 0x01, 0x00, 0x00, 0x00, 0x8c, 0x11, 0xbb, 0x3f,
  0x1f, 0x00, 0x00, 0x00, 0x73, 0x65, 0x72, 0x76, 0x69, 0x6e, 0x67, 0x5f,
  0x64, 0x65, 0x66, 0x61, 0x75, 0x6c, 0x74, 0x5f, 0x72, 0x65, 0x73, 0x68,
  0x61, 0x70, 0x65, 0x5f, 0x69, 0x6e, 0x70, 0x75, 0x74, 0x3a, 0x30, 0x00,
  0x03, 0x00, 0x00, 0x00, 0x01, 0x00, 0x00, 0x00, 0x33, 0x00, 0x00, 0x00,
  0x0d, 0x00, 0x00, 0x00, 0x06, 0x00, 0x00, 0x00, 0x7c, 0x00, 0x00, 0x00,
  0x5c, 0x00, 0x00, 0x00, 0x40, 0x00, 0x00, 0x00, 0x2c, 0x00, 0x00, 0x00,
  0x18, 0x00, 0x00, 0x00, 0x04, 0x00, 0x00, 0x00, 0xc4, 0xff, 0xff, 0xff,
  0x19, 0x00, 0x00, 0x00, 0x02, 0x00, 0x00, 0x00, 0x00, 0x00, 0x00, 0x19,
  0xd4, 0xff, 0xff, 0xff, 0x09, 0x00, 0x00, 0x00, 0x04, 0x00, 0x00, 0x00,
  0x00, 0x00, 0x00, 0x09, 0xe4, 0xff, 0xff, 0xff, 0x11, 0x00, 0x00, 0x00,
  0x02, 0x00, 0x00, 0x00, 0x00, 0x00, 0x00, 0x11, 0xd8, 0xff, 0xff, 0xff,
  0x16, 0x00, 0x00, 0x00, 0x00, 0x00, 0x00, 0x16, 0x0c, 0x00, 0x10, 0x00,
  0x0f, 0x00, 0x00, 0x00, 0x08, 0x00, 0x04, 0x00, 0x0c, 0x00, 0x00, 0x00,
  0x03, 0x00, 0x00, 0x00, 0x03, 0x00, 0x00, 0x00, 0x00, 0x00, 0x00, 0x03,
  0x0c, 0x00, 0x0c, 0x00, 0x0b, 0x00, 0x00, 0x00, 0x00, 0x00, 0x04, 0x00,
  0x0c, 0x00, 0x00, 0x00, 0x46, 0x00, 0x00, 0x00, 0x00, 0x00, 0x00, 0x46
};

const int model_len = 12528;


#ifdef __cplusplus
}
#endif

#endif // MODEL_H
