const unsigned char model[] = {
0x20, 0x00, 0x00, 0x00, 0x54, 0x46, 0x4c, 0x33, 0x00, 0x00, 0x00, 0x00,
0x14, 0x00, 0x20, 0x00, 0x1c, 0x00, 0x18, 0x00, 0x14, 0x00, 0x10, 0x00,
0x0c, 0x00, 0x00, 0x00, 0x08, 0x00, 0x04, 0x00, 0x14, 0x00, 0x00, 0x00,
0x1c, 0x00, 0x00, 0x00, 0x88, 0x00, 0x00, 0x00, 0xe0, 0x00, 0x00, 0x00,
0x34, 0x18, 0x00, 0x00, 0x44, 0x18, 0x00, 0x00, 0xa0, 0x30, 0x00, 0x00,
0x03, 0x00, 0x00, 0x00, 0x01, 0x00, 0x00, 0x00, 0x04, 0x00, 0x00, 0x00,
0xf2, 0xe3, 0xff, 0xff, 0x0c, 0x00, 0x00, 0x00, 0x1c, 0x00, 0x00, 0x00,
0x38, 0x00, 0x00, 0x00, 0x0f, 0x00, 0x00, 0x00, 0x73, 0x65, 0x72, 0x76,
0x69, 0x6e, 0x67, 0x5f, 0x64, 0x65, 0x66, 0x61, 0x75, 0x6c, 0x74, 0x00,
0x01, 0x00, 0x00, 0x00, 0x04, 0x00, 0x00, 0x00, 0x94, 0xff, 0xff, 0xff,
0x24, 0x00, 0x00, 0x00, 0x04, 0x00, 0x00, 0x00, 0x05, 0x00, 0x00, 0x00,
0x64, 0x65, 0x6e, 0x73, 0x65, 0x00, 0x00, 0x00, 0x01, 0x00, 0x00, 0x00,
0x04, 0x00, 0x00, 0x00, 0x72, 0xe7, 0xff, 0xff, 0x04, 0x00, 0x00, 0x00,
0x0d, 0x00, 0x00, 0x00, 0x72, 0x65, 0x73, 0x68, 0x61, 0x70, 0x65, 0x5f,
0x69, 0x6e, 0x70, 0x75, 0x74, 0x00, 0x00, 0x00, 0x02, 0x00, 0x00, 0x00,
0x34, 0x00, 0x00, 0x00, 0x04, 0x00, 0x00, 0x00, 0xdc, 0xff, 0xff, 0xff,
0x27, 0x00, 0x00, 0x00, 0x04, 0x00, 0x00, 0x00, 0x13, 0x00, 0x00, 0x00,
0x43, 0x4f, 0x4e, 0x56, 0x45, 0x52, 0x53, 0x49, 0x4f, 0x4e, 0x5f, 0x4d,
0x45, 0x54, 0x41, 0x44, 0x41, 0x54, 0x41, 0x00, 0x08, 0x00, 0x0c, 0x00,
0x08, 0x00, 0x04, 0x00, 0x08, 0x00, 0x00, 0x00, 0x26, 0x00, 0x00, 0x00,
0x04, 0x00, 0x00, 0x00, 0x13, 0x00, 0x00, 0x00, 0x6d, 0x69, 0x6e, 0x5f,
0x72, 0x75, 0x6e, 0x74, 0x69, 0x6d, 0x65, 0x5f, 0x76, 0x65, 0x72, 0x73,
0x69, 0x6f, 0x6e, 0x00, 0x28, 0x00, 0x00, 0x00, 0x50, 0x17, 0x00, 0x00,
0x48, 0x17, 0x00, 0x00, 0x38, 0x14, 0x00, 0x00, 0x24, 0x14, 0x00, 0x00,
0x0c, 0x14, 0x00, 0x00, 0xf8, 0x13, 0x00, 0x00, 0xd8, 0x13, 0x00, 0x00,
0xc8, 0x0d, 0x00, 0x00, 0x38, 0x0d, 0x00, 0x00, 0xe8, 0x0c, 0x00, 0x00,
0xb8, 0x0c, 0x00, 0x00, 0x9c, 0x0c, 0x00, 0x00, 0x80, 0x0c, 0x00, 0x00,
0x64, 0x0c, 0x00, 0x00, 0x48, 0x0c, 0x00, 0x00, 0x2c, 0x0c, 0x00, 0x00,
0x3c, 0x07, 0x00, 0x00, 0x2c, 0x01, 0x00, 0x00, 0x24, 0x01, 0x00, 0x00,
0x1c, 0x01, 0x00, 0x00, 0x14, 0x01, 0x00, 0x00, 0x0c, 0x01, 0x00, 0x00,
0x04, 0x01, 0x00, 0x00, 0xfc, 0x00, 0x00, 0x00, 0xf4, 0x00, 0x00, 0x00,
0xec, 0x00, 0x00, 0x00, 0xe4, 0x00, 0x00, 0x00, 0xdc, 0x00, 0x00, 0x00,
0xd4, 0x00, 0x00, 0x00, 0xcc, 0x00, 0x00, 0x00, 0xc4, 0x00, 0x00, 0x00,
0xbc, 0x00, 0x00, 0x00, 0xb4, 0x00, 0x00, 0x00, 0xac, 0x00, 0x00, 0x00,
0xa4, 0x00, 0x00, 0x00, 0x9c, 0x00, 0x00, 0x00, 0x94, 0x00, 0x00, 0x00,
0x8c, 0x00, 0x00, 0x00, 0x6c, 0x00, 0x00, 0x00, 0x04, 0x00, 0x00, 0x00,
0x8e, 0xe8, 0xff, 0xff, 0x04, 0x00, 0x00, 0x00, 0x58, 0x00, 0x00, 0x00,
0x0c, 0x00, 0x00, 0x00, 0x08, 0x00, 0x0e, 0x00, 0x08, 0x00, 0x04, 0x00,
0x08, 0x00, 0x00, 0x00, 0x10, 0x00, 0x00, 0x00, 0x28, 0x00, 0x00, 0x00,
0x00, 0x00, 0x06, 0x00, 0x08, 0x00, 0x04, 0x00, 0x06, 0x00, 0x00, 0x00,
0x04, 0x00, 0x00, 0x00, 0x01, 0x00, 0x00, 0x00, 0xea, 0x03, 0x00, 0x00,
0x00, 0x00, 0x0a, 0x00, 0x10, 0x00, 0x0c, 0x00, 0x08, 0x00, 0x04, 0x00,
0x0a, 0x00, 0x00, 0x00, 0x02, 0x00, 0x00, 0x00, 0x02, 0x00, 0x00, 0x00,
0x04, 0x00, 0x00, 0x00, 0x06, 0x00, 0x00, 0x00, 0x32, 0x2e, 0x31, 0x35,
0x2e, 0x30, 0x00, 0x00, 0xf2, 0xe8, 0xff, 0xff, 0x04, 0x00, 0x00, 0x00,
0x10, 0x00, 0x00, 0x00, 0x32, 0x2e, 0x34, 0x2e, 0x30, 0x00, 0x00, 0x00,
0x00, 0x00, 0x00, 0x00, 0x00, 0x00, 0x00, 0x00, 0x94, 0xd1, 0xff, 0xff,
0x98, 0xd1, 0xff, 0xff, 0x9c, 0xd1, 0xff, 0xff, 0xa0, 0xd1, 0xff, 0xff,
0xa4, 0xd1, 0xff, 0xff, 0xa8, 0xd1, 0xff, 0xff, 0xac, 0xd1, 0xff, 0xff,
0xb0, 0xd1, 0xff, 0xff, 0xb4, 0xd1, 0xff, 0xff, 0xb8, 0xd1, 0xff, 0xff,
0xbc, 0xd1, 0xff, 0xff, 0xc0, 0xd1, 0xff, 0xff, 0xc4, 0xd1, 0xff, 0xff,
0xc8, 0xd1, 0xff, 0xff, 0xcc, 0xd1, 0xff, 0xff, 0xd0, 0xd1, 0xff, 0xff,
0xd4, 0xd1, 0xff, 0xff, 0xd8, 0xd1, 0xff, 0xff, 0xdc, 0xd1, 0xff, 0xff,
0xe0, 0xd1, 0xff, 0xff, 0x5e, 0xe9, 0xff, 0xff, 0x04, 0x00, 0x00, 0x00,
0x00, 0x06, 0x00, 0x00, 0x07, 0xcf, 0x27, 0x2d, 0xea, 0xc0, 0xe8, 0xb8,
0x89, 0xbe, 0xfe, 0xc8, 0xec, 0xcd, 0xfd, 0x02, 0xfd, 0xe9, 0x0c, 0xe6,
0xd1, 0x06, 0xad, 0xb2, 0x5b, 0xc4, 0x13, 0xfe, 0xc6, 0xf2, 0xfd, 0xba,
0xdb, 0x08, 0x10, 0xcf, 0xd1, 0xd9, 0xf6, 0xfb, 0xc9, 0xf1, 0x1d, 0xcb,
0x06, 0xe3, 0x26, 0xd3, 0xd9, 0x0a, 0xd7, 0xba, 0x0e, 0xdf, 0xab, 0x01,
0x7f, 0xe4, 0x06, 0xdc, 0x93, 0x16, 0x16, 0x9b, 0xc4, 0x35, 0xcf, 0x23,
0x1c, 0xf6, 0xe7, 0x29, 0xe5, 0xd6, 0x31, 0xa2, 0xe6, 0xdd, 0xc6, 0x39,
0x0b, 0xeb, 0x0e, 0xf5, 0x1f, 0xfb, 0xcb, 0x02, 0x3b, 0x26, 0x76, 0xc2,
0xaa, 0xd6, 0xe1, 0x94, 0x37, 0xfe, 0xc5, 0xd4, 0xf8, 0xf0, 0xe0, 0x22,
0x26, 0x23, 0x0f, 0x00, 0xfe, 0xed, 0x14, 0x06, 0xe8, 0xd5, 0xf6, 0x0e,
0xe6, 0xf0, 0xea, 0x02, 0x2c, 0x2d, 0x1b, 0x00, 0xe9, 0x1b, 0x12, 0xcd,
0x23, 0xee, 0xca, 0x10, 0xf3, 0xf6, 0xe5, 0x04, 0x52, 0xf8, 0x05, 0xf8,
0x00, 0x0d, 0xfe, 0x04, 0x11, 0xda, 0x00, 0x09, 0xe4, 0xe7, 0xed, 0x7f,
0x09, 0xf1, 0xe6, 0x12, 0x21, 0xfc, 0x12, 0xea, 0x24, 0xf5, 0xe1, 0xf5,
0xf0, 0xf8, 0xec, 0xf4, 0xed, 0xdf, 0x14, 0x27, 0x0d, 0xf0, 0xe5, 0x37,
0xff, 0xe4, 0xfd, 0x02, 0xd7, 0xef, 0xd8, 0x67, 0x51, 0x3a, 0x2d, 0x03,
0x3d, 0x03, 0xf3, 0xee, 0x7b, 0x27, 0x14, 0x35, 0x00, 0x8f, 0xe2, 0xd4,
0xb3, 0xd7, 0xf4, 0x2c, 0xc8, 0xf3, 0x0e, 0xf0, 0x22, 0xc6, 0xab, 0x11,
0x10, 0xeb, 0xaa, 0xf0, 0xed, 0xfa, 0x16, 0x0d, 0xf3, 0x0e, 0xdd, 0xf7,
0x21, 0x04, 0x1c, 0x4b, 0x07, 0x81, 0x02, 0xad, 0xb3, 0xce, 0xfc, 0xf5,
0xe6, 0xcb, 0xf2, 0xbc, 0xce, 0xce, 0xa8, 0xf8, 0xf1, 0x14, 0xd3, 0xeb,
0xf3, 0x49, 0x12, 0xfd, 0x0b, 0x36, 0xed, 0xc3, 0xdb, 0xf5, 0xfe, 0x08,
0x02, 0x8d, 0xe2, 0xd0, 0xd2, 0xd4, 0xf6, 0x07, 0xdb, 0x2d, 0x0a, 0xe2,
0x0b, 0xcb, 0xa5, 0x06, 0x10, 0x0c, 0xb3, 0x36, 0x06, 0x8e, 0xe4, 0x25,
0x64, 0x0a, 0x08, 0xa6, 0x21, 0xf8, 0xdc, 0x26, 0x07, 0xea, 0xd3, 0x0b,
0x4d, 0xf1, 0x03, 0xe7, 0xea, 0xf8, 0x28, 0xbd, 0xe1, 0xe4, 0x00, 0x0f,
0x0e, 0x0d, 0xe4, 0x45, 0x72, 0x03, 0x35, 0x0c, 0x51, 0x30, 0xfa, 0x0f,
0x45, 0x04, 0xea, 0x6f, 0xeb, 0xe0, 0xbc, 0xdb, 0xf2, 0xd0, 0xfa, 0xf0,
0xee, 0xbd, 0x3b, 0xd8, 0xd4, 0x01, 0x08, 0xec, 0xfb, 0x04, 0xe2, 0x7f,
0x32, 0x35, 0x3a, 0x01, 0x12, 0xf1, 0x2e, 0x24, 0x1c, 0x06, 0xc2, 0x4f,
0x1e, 0xc9, 0xfd, 0xf3, 0x1c, 0x0c, 0xf7, 0x1e, 0xe6, 0x38, 0x7c, 0xe4,
0xfa, 0x08, 0xf7, 0x02, 0x07, 0xf6, 0x08, 0x5f, 0x57, 0x1e, 0x2c, 0xf3,
0xfd, 0x01, 0x2c, 0xf9, 0xef, 0x09, 0xdd, 0xfb, 0xeb, 0xec, 0x53, 0x33,
0xf2, 0x0b, 0xf7, 0xcd, 0x09, 0x0f, 0xd8, 0xd0, 0x19, 0xf5, 0xf2, 0x13,
0xe2, 0xf6, 0xd4, 0xeb, 0xfd, 0xde, 0xe4, 0xe7, 0xeb, 0xe7, 0x1d, 0xed,
0x1b, 0x00, 0xee, 0xc2, 0x14, 0xff, 0x32, 0x28, 0x64, 0x7f, 0xb9, 0xd7,
0xff, 0xe8, 0xf2, 0xef, 0xcd, 0xe0, 0x00, 0xfa, 0xec, 0x0e, 0x0b, 0xed,
0xf7, 0x0f, 0x18, 0xd3, 0xd0, 0xe0, 0xf6, 0x17, 0x1e, 0xf6, 0xf8, 0xe2,
0x09, 0xea, 0xef, 0x05, 0x09, 0xf3, 0xcb, 0xe7, 0x1e, 0xf1, 0xc5, 0xb4,
0x06, 0x1c, 0xe0, 0x00, 0xfb, 0x0f, 0xe0, 0x11, 0x2b, 0xf5, 0xe4, 0xee,
0xd0, 0x14, 0xe4, 0xd5, 0x13, 0xee, 0xeb, 0x2b, 0x26, 0xa8, 0xba, 0xd0,
0xb4, 0xc7, 0x14, 0xfa, 0xfa, 0x11, 0x27, 0xe4, 0x15, 0xee, 0x2b, 0x19,
0xf5, 0xfd, 0xfa, 0x01, 0xa3, 0xcd, 0x00, 0xfc, 0x81, 0x0b, 0xeb, 0xde,
0xfa, 0xf3, 0xeb, 0x01, 0x1e, 0xf3, 0xc2, 0xcd, 0x9e, 0xad, 0x16, 0xec,
0x2b, 0x28, 0x28, 0xf4, 0x08, 0xe6, 0x0c, 0x17, 0x06, 0xea, 0xe4, 0x29,
0xde, 0xf1, 0x22, 0x03, 0xb8, 0x4a, 0x34, 0xb0, 0x0a, 0xe0, 0xdf, 0x2b,
0x2c, 0x0a, 0xc7, 0x1f, 0x09, 0xe0, 0x1a, 0xf5, 0x0b, 0x23, 0x52, 0x05,
0xe5, 0x27, 0x03, 0x0d, 0x04, 0xec, 0x19, 0x3e, 0xba, 0xda, 0x04, 0xff,
0x88, 0xe3, 0xda, 0xb5, 0xf9, 0xe9, 0xf0, 0x2c, 0x00, 0xe1, 0xfe, 0xf1,
0x07, 0x31, 0xf4, 0xe5, 0xf6, 0xc0, 0xf8, 0xfa, 0xfb, 0x0f, 0x05, 0x02,
0xe6, 0xfd, 0xf0, 0x7f, 0x44, 0x02, 0x19, 0xa8, 0xfa, 0xb9, 0xe8, 0x2f,
0x33, 0xe4, 0xe9, 0x23, 0x06, 0xe0, 0xfa, 0x7b, 0x75, 0x70, 0xfc, 0x07,
0x01, 0xc3, 0x00, 0x03, 0xca, 0x14, 0x1b, 0x0b, 0xdd, 0x06, 0xcc, 0x52,
0xec, 0x0c, 0xf9, 0x9e, 0xff, 0xa9, 0xee, 0xfb, 0x0a, 0xea, 0x06, 0x30,
0x24, 0xe1, 0xf7, 0x0c, 0x34, 0x07, 0x06, 0x08, 0xfc, 0xff, 0xe5, 0x19,
0x41, 0x10, 0xfe, 0x0c, 0xdc, 0x06, 0xf7, 0x49, 0x2b, 0x23, 0xe9, 0xb0,
0xe2, 0xd1, 0x09, 0xcd, 0xd5, 0xd3, 0x2a, 0x23, 0x35, 0xd0, 0x13, 0x13,
0xba, 0xd4, 0xf9, 0xd4, 0xd8, 0xf9, 0xcd, 0xfa, 0xbc, 0x11, 0xb4, 0xce,
0xce, 0xa8, 0xf7, 0xe4, 0xf2, 0xd0, 0xbf, 0xd8, 0xfb, 0x12, 0x2e, 0xdc,
0x0f, 0xc1, 0x09, 0x27, 0x31, 0xbc, 0xa7, 0x27, 0xf0, 0xcf, 0xe5, 0x0a,
0xc7, 0xcc, 0xf7, 0xa9, 0xc7, 0xf0, 0xc4, 0xea, 0xd1, 0xe8, 0xb9, 0x0c,
0xdd, 0x17, 0xe4, 0xfa, 0xf5, 0x17, 0xf5, 0xc0, 0xce, 0xc6, 0xef, 0x0b,
0xf9, 0xf0, 0x7f, 0x58, 0x26, 0x5b, 0x12, 0x0d, 0x03, 0xdf, 0xf3, 0xe9,
0x4c, 0xea, 0xdd, 0x27, 0xc5, 0xf7, 0x10, 0xbe, 0xd2, 0x12, 0xec, 0xec,
0xdc, 0x05, 0x38, 0x0b, 0x02, 0x00, 0xf8, 0xe2, 0xd2, 0xd4, 0xfe, 0xdb,
0xde, 0xf6, 0x13, 0xfb, 0x92, 0x03, 0xc7, 0xe8, 0x3f, 0x05, 0x05, 0x28,
0xfb, 0xc9, 0xd6, 0x4e, 0x4e, 0xf5, 0x13, 0xcc, 0x19, 0xbd, 0xff, 0xf6,
0xc6, 0x06, 0xd8, 0x04, 0x0a, 0x9b, 0xf3, 0x29, 0x31, 0xe6, 0xfd, 0x00,
0xd4, 0xa8, 0x81, 0x26, 0x1d, 0xf6, 0x1f, 0xf4, 0xdf, 0x9d, 0xc3, 0x52,
0xc4, 0xde, 0x33, 0xc6, 0x05, 0xbf, 0x08, 0x1d, 0xff, 0x21, 0xbc, 0x2a,
0xe7, 0xb5, 0x03, 0xd6, 0xeb, 0x09, 0x16, 0x31, 0x94, 0x20, 0xc5, 0x11,
0x32, 0x08, 0xf7, 0xfc, 0x15, 0xb2, 0xa1, 0x5d, 0x74, 0x1d, 0x57, 0xda,
0x24, 0xd8, 0xe6, 0xfe, 0x1b, 0x10, 0xe9, 0xda, 0x2f, 0xc4, 0x26, 0xe6,
0xe2, 0xd8, 0x1d, 0x37, 0xd0, 0x38, 0x07, 0xa3, 0xd6, 0xca, 0x8c, 0xd9,
0xd0, 0x8c, 0xcf, 0x00, 0x5b, 0x30, 0x13, 0x1b, 0xa7, 0x2f, 0xc2, 0xb2,
0xe3, 0xf8, 0xe1, 0xf6, 0xe9, 0xb7, 0x10, 0xa8, 0xea, 0xba, 0x2f, 0xa1,
0x08, 0xe7, 0x18, 0xe5, 0x07, 0xf6, 0xb9, 0x1b, 0xe1, 0x83, 0xff, 0x0f,
0x47, 0x3d, 0xf9, 0xe0, 0xdd, 0xf5, 0xfc, 0xb6, 0xab, 0x1d, 0xc0, 0xeb,
0x06, 0xeb, 0x3e, 0xc5, 0xf1, 0x24, 0xfc, 0x9c, 0x12, 0xf4, 0x8d, 0x9f,
0x21, 0xe6, 0xc5, 0x16, 0xf9, 0xee, 0xb8, 0xd7, 0x7f, 0xf7, 0x19, 0x1e,
0xd2, 0x20, 0x1f, 0xac, 0xc2, 0xc9, 0xbb, 0xe0, 0x45, 0x0b, 0x7f, 0xe0,
0x17, 0xbc, 0xc7, 0x0d, 0xfe, 0x1a, 0xac, 0xcf, 0x06, 0xea, 0xe2, 0x02,
0xba, 0x01, 0xc3, 0xdd, 0xd2, 0xe1, 0x00, 0xe0, 0x12, 0xda, 0x19, 0xf0,
0xf3, 0x95, 0xfb, 0xb8, 0x02, 0xe0, 0x1b, 0x2a, 0x24, 0x27, 0xca, 0xc9,
0x23, 0xd5, 0xfa, 0x9b, 0x11, 0xed, 0xc3, 0x02, 0x98, 0x26, 0x07, 0x1e,
0xe1, 0xb2, 0x0b, 0xbc, 0xc9, 0xc6, 0xfa, 0xfe, 0x19, 0xc5, 0xe4, 0xa3,
0xe9, 0xcc, 0x60, 0x2b, 0x26, 0x34, 0xd9, 0x09, 0xec, 0x03, 0xc1, 0xc6,
0x32, 0x01, 0xd5, 0x29, 0xbc, 0xed, 0xd2, 0xcf, 0x0a, 0xdd, 0xd9, 0xc9,
0xba, 0xb7, 0xcd, 0xb0, 0x29, 0x0f, 0x9b, 0xb8, 0xa2, 0x0b, 0x08, 0x00,
0xf9, 0xcf, 0x11, 0x51, 0x0c, 0x0d, 0x21, 0xe7, 0xcf, 0xe9, 0x04, 0xd1,
0xd6, 0xd6, 0xce, 0x2a, 0xcd, 0x44, 0x23, 0xad, 0xf2, 0x04, 0x19, 0xc1,
0x45, 0xe5, 0x9a, 0xe7, 0xf9, 0xb8, 0xf5, 0xd6, 0xee, 0xb7, 0xc5, 0x5c,
0xf9, 0x01, 0x05, 0xc9, 0xf6, 0x8d, 0xd8, 0xf0, 0xf8, 0xe4, 0x2d, 0xe8,
0x60, 0xae, 0xdd, 0xbc, 0x1c, 0xf0, 0xa7, 0xd0, 0xd3, 0xe3, 0x81, 0xbc,
0x26, 0xab, 0x20, 0x46, 0x24, 0xd1, 0x10, 0xd0, 0xea, 0xde, 0xff, 0xb7,
0x6d, 0xfe, 0xdc, 0xcd, 0x01, 0xc3, 0x05, 0xb6, 0x50, 0xa6, 0x37, 0x28,
0x1b, 0xf8, 0xbf, 0xd8, 0x06, 0x1f, 0x90, 0xa1, 0xcd, 0xed, 0x08, 0xf2,
0x92, 0xef, 0xb4, 0xd9, 0xaf, 0xed, 0x29, 0x11, 0xbd, 0x51, 0xf4, 0xcc,
0xcd, 0xbb, 0x04, 0xbb, 0xfe, 0x8e, 0xd3, 0x1b, 0xe1, 0x26, 0xd4, 0x09,
0xc8, 0x08, 0x81, 0xf7, 0x9e, 0x16, 0x32, 0xdc, 0xc6, 0xe0, 0xc9, 0xff,
0x93, 0x03, 0x11, 0x0e, 0xbc, 0xfa, 0xf5, 0xc4, 0xdd, 0xaa, 0x3d, 0xf6,
0x16, 0xb7, 0xec, 0xf7, 0xf4, 0x11, 0x1c, 0x12, 0xac, 0x0c, 0xc9, 0xc1,
0xb3, 0xd2, 0xf8, 0x0b, 0x8e, 0x07, 0xa0, 0x0d, 0x92, 0x1f, 0xf9, 0x23,
0xae, 0x2e, 0x24, 0xb8, 0xde, 0xc3, 0x4b, 0xf9, 0xc9, 0xc2, 0xd1, 0xf0,
0xe5, 0x39, 0x13, 0x07, 0xed, 0x00, 0xc8, 0xe9, 0x19, 0x01, 0x49, 0x4f,
0x5c, 0x7f, 0xd5, 0xee, 0x03, 0xe0, 0x07, 0x05, 0xb4, 0xd7, 0x08, 0xe3,
0xf6, 0xef, 0xdf, 0xec, 0xf8, 0x02, 0x0b, 0xf4, 0xdd, 0xf2, 0x18, 0x17,
0x09, 0xe0, 0xe8, 0xd5, 0x11, 0x12, 0xfb, 0x1d, 0x30, 0x49, 0xf4, 0xe5,
0x02, 0x0b, 0xe7, 0xb3, 0xff, 0xfd, 0xe7, 0x0c, 0xf9, 0xf2, 0x08, 0xd8,
0x02, 0xd0, 0xd6, 0xd8, 0xef, 0xd2, 0x19, 0xe7, 0xfb, 0xf3, 0xe6, 0x05,
0x0b, 0x0b, 0x09, 0x0a, 0xee, 0x05, 0xe3, 0xe9, 0x01, 0x15, 0xeb, 0xde,
0x14, 0x08, 0xd6, 0x1a, 0xde, 0x19, 0x15, 0xe3, 0xef, 0xea, 0xe6, 0xc3,
0xd4, 0xd4, 0x0b, 0xd3, 0xb5, 0xf2, 0x07, 0xbb, 0x06, 0x1c, 0xf3, 0xa6,
0xb5, 0xb0, 0x04, 0x15, 0x12, 0x0e, 0xf4, 0x0a, 0x2e, 0xc2, 0x0c, 0xca,
0xe6, 0xf9, 0xfb, 0xa3, 0x38, 0xf0, 0x30, 0xc2, 0xfa, 0x04, 0x14, 0x09,
0xd5, 0xec, 0xce, 0xd8, 0x81, 0x13, 0x3b, 0xc2, 0xa6, 0xec, 0x05, 0xd3,
0xf4, 0xf0, 0x08, 0x14, 0xdf, 0xc5, 0x05, 0xb2, 0xd7, 0x18, 0xff, 0x84,
0xf2, 0xc4, 0xe1, 0xd1, 0x16, 0xfd, 0xf0, 0x0a, 0xaa, 0xda, 0x3a, 0xd1,
0xae, 0x4a, 0xbb, 0xeb, 0xed, 0x14, 0x32, 0x0a, 0xfd, 0x1e, 0x03, 0xff,
0xd6, 0x91, 0xf2, 0xc7, 0xdc, 0x01, 0xf1, 0x98, 0xf8, 0xcd, 0xee, 0xcf,
0xf9, 0xe5, 0xdf, 0x10, 0xc8, 0xff, 0x63, 0xfa, 0x06, 0x23, 0xe7, 0xb7,
0xa2, 0xbe, 0x10, 0x8c, 0xf3, 0xd5, 0xf0, 0x04, 0x15, 0xe4, 0xff, 0xf0,
0xd5, 0x0d, 0xf3, 0x92, 0xf3, 0xc7, 0xf9, 0x02, 0x06, 0xc7, 0x00, 0x09,
0xcb, 0xf9, 0x17, 0xf0, 0xc5, 0x1f, 0xbf, 0xdb, 0xc2, 0xfd, 0x00, 0xa6,
0xee, 0xda, 0xe2, 0xf1, 0x04, 0xdf, 0xf9, 0xe3, 0xd2, 0x06, 0x0e, 0x8d,
0xd9, 0xd4, 0x05, 0x03, 0xef, 0xcc, 0xf9, 0xfb, 0xe4, 0xf9, 0x51, 0xfe,
0xe0, 0xff, 0xaf, 0x1b, 0xe2, 0xff, 0x24, 0xd0, 0xea, 0xeb, 0x25, 0x17,
0xe3, 0xd7, 0xf8, 0xe7, 0xc8, 0x0e, 0x0d, 0x81, 0x0e, 0xcf, 0xf0, 0x07,
0x28, 0xd7, 0xf6, 0x1b, 0x6a, 0xef, 0xff, 0xff, 0x04, 0x00, 0x00, 0x00,
0xe0, 0x04, 0x00, 0x00, 0x3d, 0x08, 0xf3, 0x4c, 0xbb, 0xe8, 0x07, 0xd1,
0xba, 0x53, 0xd6, 0x1d, 0x3d, 0x1b, 0xfc, 0xc8, 0x08, 0x02, 0x02, 0x45,
0x9e, 0x19, 0x2b, 0xd2, 0x1d, 0x0c, 0x36, 0xf6, 0xe4, 0xe0, 0xd3, 0xb8,
0x31, 0x81, 0x07, 0xfd, 0xd7, 0xc5, 0x3e, 0x0d, 0xdf, 0x3b, 0x04, 0x04,
0x10, 0xf1, 0x36, 0xdf, 0x2c, 0xcf, 0x13, 0xa4, 0xfd, 0x40, 0x3a, 0xdc,
0xd1, 0xde, 0x27, 0x17, 0xc6, 0x44, 0xd5, 0x33, 0xca, 0xd6, 0xc5, 0x7f,
0xab, 0x48, 0xd8, 0x5e, 0x30, 0xff, 0x42, 0xbd, 0x61, 0xd0, 0x29, 0xea,
0xeb, 0x3e, 0xed, 0x35, 0xe9, 0x49, 0x1b, 0x43, 0x6e, 0xca, 0x50, 0x37,
0x34, 0x15, 0x47, 0x3b, 0x10, 0xb9, 0x1f, 0xdc, 0x44, 0x7f, 0xe0, 0x55,
0x48, 0xe7, 0x08, 0x51, 0x1a, 0x26, 0xb5, 0x49, 0x1f, 0x49, 0x71, 0xbe,
0x06, 0xfc, 0x12, 0x11, 0xc8, 0x62, 0xf9, 0x04, 0xed, 0x19, 0xcf, 0x5b,
0xbe, 0x34, 0x0c, 0x3e, 0xd7, 0xb4, 0x50, 0x2a, 0xb8, 0xd5, 0xfb, 0x0b,
0x5f, 0xc2, 0x26, 0x10, 0xff, 0xdc, 0xe7, 0x7f, 0x00, 0xcd, 0xaf, 0x3b,
0xbf, 0x61, 0xd7, 0x0e, 0x2f, 0x1b, 0xeb, 0xe2, 0xee, 0xba, 0x1c, 0xc4,
0xde, 0xeb, 0xc8, 0xde, 0x7f, 0xfe, 0x12, 0xf8, 0xb9, 0xfe, 0xd2, 0x36,
0xc4, 0xaf, 0xb7, 0xf0, 0x18, 0x66, 0xe6, 0xd2, 0xd6, 0x11, 0xf2, 0xc8,
0x2c, 0xa8, 0xed, 0xdd, 0xd8, 0xe7, 0x54, 0x13, 0x1b, 0x26, 0x14, 0xe2,
0x3a, 0xeb, 0xf0, 0xe1, 0xdf, 0x26, 0x07, 0x82, 0x1c, 0x08, 0x31, 0x03,
0xda, 0x2c, 0xe0, 0xef, 0xc1, 0x0a, 0x49, 0xb8, 0x89, 0x28, 0x1e, 0x27,
0xe9, 0x02, 0x2a, 0x1d, 0xda, 0xf8, 0xf4, 0x57, 0x0b, 0x81, 0xfc, 0x30,
0xbd, 0x4c, 0x08, 0x14, 0x33, 0xaf, 0x1c, 0xcd, 0xed, 0xcf, 0xfc, 0x7f,
0xcc, 0x7c, 0xa8, 0x6d, 0x83, 0x4b, 0xc7, 0x4a, 0x02, 0x6c, 0x23, 0x63,
0xa9, 0x07, 0xd8, 0x0d, 0x14, 0xd5, 0x3a, 0xd7, 0xf8, 0x69, 0x31, 0x2f,
0x7f, 0x4d, 0xc4, 0xf0, 0xa3, 0xbc, 0xeb, 0xf5, 0xf1, 0xf4, 0xa8, 0x25,
0x28, 0xf2, 0x32, 0xce, 0x7f, 0xe5, 0x60, 0xb3, 0x22, 0xf2, 0x53, 0xef,
0x17, 0x0b, 0x1d, 0xcf, 0xf2, 0xa4, 0x09, 0xf9, 0x8f, 0xd8, 0xc7, 0xdf,
0x21, 0xf1, 0xd7, 0xd9, 0x0d, 0xd7, 0x40, 0xaa, 0x4c, 0xd8, 0x34, 0xfd,
0x09, 0xe9, 0xf4, 0x3b, 0x44, 0x15, 0xd6, 0x47, 0xd8, 0x7f, 0xba, 0x23,
0xdd, 0x1b, 0xf1, 0xf3, 0xe6, 0x1d, 0xe8, 0x13, 0xb1, 0x25, 0x2d, 0xb1,
0xea, 0xe0, 0xe5, 0x12, 0x19, 0xb3, 0x11, 0x48, 0xca, 0x21, 0xb9, 0xd3,
0x30, 0x46, 0xeb, 0xf7, 0xe0, 0x12, 0xda, 0xfb, 0x2e, 0xf8, 0x77, 0xa3,
0x28, 0x81, 0x59, 0xbe, 0x00, 0x12, 0xb8, 0xbd, 0x06, 0xd4, 0xc2, 0xba,
0xfa, 0xf9, 0xb2, 0xd6, 0xae, 0xdb, 0xed, 0x68, 0xfa, 0x2d, 0xf5, 0x06,
0xae, 0x4c, 0x03, 0xb8, 0x7f, 0xf8, 0x1c, 0xbd, 0x60, 0xbe, 0xe6, 0x25,
0x1b, 0xe5, 0x2d, 0xf3, 0xc3, 0x61, 0xdd, 0x1f, 0xb6, 0x31, 0xe8, 0xbd,
0x03, 0xf5, 0xea, 0x25, 0x10, 0xb8, 0x64, 0xc7, 0x2e, 0x9a, 0x36, 0xbb,
0xd6, 0xf8, 0x10, 0x11, 0xbd, 0x04, 0xbe, 0xef, 0x7f, 0xda, 0xcd, 0x11,
0x01, 0x3c, 0x20, 0x15, 0x05, 0xc3, 0xd4, 0xe1, 0x06, 0x65, 0xde, 0xfd,
0xfc, 0x05, 0x23, 0xf4, 0xfb, 0x0e, 0xc1, 0xcc, 0xcd, 0xf1, 0x56, 0xe1,
0xe0, 0x00, 0x14, 0x16, 0x27, 0xf4, 0xca, 0x37, 0x24, 0xd6, 0x3d, 0xe7,
0x51, 0x33, 0x3e, 0x08, 0x27, 0xea, 0xec, 0xbd, 0xf5, 0xdd, 0xd4, 0xdc,
0xe7, 0x00, 0x05, 0x67, 0xe1, 0x25, 0xe8, 0xce, 0xd9, 0xea, 0xec, 0xba,
0xd0, 0xff, 0xfd, 0xfc, 0x7f, 0x1a, 0x57, 0x44, 0xfd, 0xf6, 0xe1, 0x2f,
0xfd, 0xed, 0x01, 0x05, 0xb3, 0x22, 0xf7, 0x48, 0xe0, 0xd3, 0xb1, 0xef,
0x02, 0x06, 0x00, 0xc7, 0xda, 0x0c, 0x07, 0xbc, 0xd1, 0x02, 0xbf, 0x61,
0x99, 0x1e, 0x81, 0xec, 0xb8, 0x38, 0xd4, 0xeb, 0x8e, 0x09, 0x01, 0xf4,
0xf4, 0xe2, 0x1e, 0xdd, 0xe6, 0x98, 0x39, 0xe8, 0x1a, 0x09, 0x19, 0xfe,
0xf4, 0x14, 0xe8, 0x16, 0xdf, 0xf5, 0x81, 0x41, 0xed, 0x11, 0xf1, 0x1f,
0xf7, 0xee, 0xf3, 0xcf, 0x0c, 0xf5, 0xe0, 0x93, 0x49, 0xe7, 0x16, 0xf1,
0x27, 0x1f, 0xf9, 0xb3, 0x02, 0x69, 0xb8, 0x15, 0x24, 0xe1, 0x17, 0xc4,
0x4e, 0xba, 0xf2, 0x14, 0xe9, 0xf2, 0x6d, 0x81, 0x45, 0xf9, 0xe7, 0xf7,
0xe2, 0x3a, 0xcb, 0xeb, 0xe8, 0x17, 0xfa, 0x6f, 0xa9, 0x28, 0xf5, 0x00,
0xf4, 0xbe, 0x2c, 0xcc, 0x27, 0xef, 0xc7, 0xc0, 0x29, 0xb6, 0x39, 0xb8,
0xcb, 0x02, 0xe2, 0x3f, 0x03, 0xd8, 0xf1, 0xc8, 0x0c, 0xeb, 0x9a, 0x27,
0xb0, 0x05, 0x4c, 0x81, 0x0b, 0xdd, 0x0b, 0xf5, 0x69, 0xaa, 0x29, 0x89,
0x2a, 0xa2, 0x2a, 0x2c, 0x9b, 0xff, 0xa8, 0x00, 0x25, 0xca, 0xf3, 0x66,
0xea, 0x5c, 0xf4, 0x25, 0x45, 0xc1, 0xed, 0x2d, 0x09, 0x19, 0xd5, 0xd8,
0x4d, 0xe7, 0x12, 0xec, 0x38, 0x64, 0xad, 0xe4, 0x48, 0x14, 0xed, 0x35,
0x0a, 0x7f, 0xcf, 0x2a, 0xf7, 0x4c, 0x5c, 0xb2, 0xda, 0x47, 0x2d, 0xe0,
0xfd, 0x2d, 0x10, 0x11, 0x97, 0xf7, 0xe1, 0xf6, 0x40, 0x4d, 0x3d, 0x07,
0x3a, 0xc8, 0x34, 0x58, 0x40, 0x81, 0x45, 0xca, 0x2b, 0x4e, 0x43, 0x1c,
0xfe, 0x01, 0x0f, 0x24, 0x14, 0x45, 0xad, 0x3c, 0x10, 0x15, 0x53, 0x07,
0x6d, 0xd9, 0x22, 0x03, 0xcf, 0x66, 0x02, 0x8c, 0x18, 0x23, 0xf6, 0x40,
0xd2, 0x19, 0x10, 0xcc, 0xf7, 0x28, 0xee, 0xfd, 0x81, 0x4b, 0x05, 0xfa,
0x60, 0xc9, 0x09, 0x17, 0x26, 0x13, 0x2b, 0x33, 0xf6, 0xea, 0x27, 0xe7,
0xf2, 0x70, 0xdf, 0x05, 0xe2, 0x37, 0x73, 0xec, 0xb7, 0x22, 0xfc, 0x04,
0x3e, 0xb2, 0x39, 0xc8, 0xf9, 0xf9, 0xf4, 0x79, 0xe9, 0xa6, 0x4e, 0x21,
0xe9, 0x3d, 0xbd, 0x37, 0xba, 0x1c, 0x28, 0x07, 0x2a, 0x2e, 0x82, 0x68,
0xe1, 0x03, 0x49, 0xa4, 0x7f, 0xb8, 0x08, 0x05, 0x1d, 0x01, 0x15, 0x18,
0x0f, 0xf2, 0xbe, 0x52, 0xd7, 0x7c, 0xad, 0x32, 0xfc, 0x04, 0xe6, 0xe4,
0xf3, 0x02, 0x05, 0xcf, 0x13, 0xa6, 0x1d, 0xc5, 0x7f, 0xee, 0xdc, 0xda,
0xc8, 0xc4, 0xed, 0xee, 0xe1, 0x70, 0xd5, 0x13, 0x8b, 0x6e, 0x16, 0x05,
0x3d, 0xc7, 0x28, 0xa0, 0x7f, 0xbc, 0x7c, 0xde, 0x02, 0xee, 0xe1, 0xf2,
0xde, 0x15, 0xc0, 0x48, 0xe9, 0x6f, 0xec, 0x41, 0x07, 0x0a, 0x09, 0xe1,
0xf7, 0xca, 0x48, 0xc7, 0x6c, 0xe6, 0x6c, 0xdc, 0x7d, 0xef, 0xda, 0x29,
0xdf, 0x3e, 0x09, 0xda, 0x5d, 0x4e, 0xcd, 0xb3, 0x03, 0xef, 0x4e, 0xc1,
0x46, 0x01, 0x50, 0x21, 0x03, 0x42, 0x64, 0x81, 0x21, 0xa0, 0xd7, 0x56,
0x95, 0x63, 0x33, 0x2e, 0xdd, 0x1b, 0x3f, 0x44, 0x9a, 0x1d, 0xfb, 0xe9,
0xf9, 0xf9, 0x66, 0x3d, 0xca, 0x8c, 0xce, 0x45, 0xba, 0x52, 0xfa, 0x81,
0x76, 0xed, 0x95, 0xcb, 0x13, 0x16, 0xe0, 0xbc, 0x30, 0xef, 0x67, 0xdc,
0xf4, 0xc0, 0x1e, 0xa0, 0x1a, 0xcf, 0x33, 0xa2, 0x27, 0x4d, 0xd9, 0x14,
0xed, 0xe7, 0x51, 0xc0, 0x3c, 0xa6, 0x9c, 0x28, 0xe5, 0xae, 0xb1, 0xae,
0x38, 0xdc, 0x02, 0xc9, 0xf9, 0x21, 0x0c, 0xda, 0xfd, 0x08, 0xd3, 0xc1,
0x8a, 0x64, 0xe5, 0x21, 0xb8, 0xe6, 0xeb, 0xfd, 0xa4, 0xda, 0xcb, 0x52,
0x81, 0xd7, 0x22, 0x16, 0xe9, 0x15, 0xd7, 0x42, 0xb7, 0xed, 0x01, 0xd4,
0x1b, 0x15, 0x2b, 0xc0, 0xa0, 0x22, 0xd2, 0xf3, 0xa3, 0x5f, 0xcb, 0x20,
0xcc, 0x62, 0xd4, 0x40, 0x99, 0x81, 0x02, 0xe0, 0xde, 0xc9, 0x2f, 0xf4,
0xed, 0xb6, 0x0c, 0xfe, 0x13, 0xd9, 0xa2, 0x05, 0x1e, 0xcb, 0xd6, 0x12,
0xdf, 0xdd, 0xf9, 0x23, 0x06, 0xa5, 0x33, 0xad, 0xf3, 0x7c, 0xfe, 0xfb,
0xc4, 0x37, 0x46, 0xe4, 0x12, 0x2e, 0x8e, 0x68, 0xa6, 0x17, 0x50, 0xe3,
0x29, 0xda, 0x51, 0xe6, 0xd5, 0x0b, 0x0f, 0x81, 0x55, 0x9c, 0x07, 0x3a,
0xfa, 0xc4, 0xef, 0xf7, 0xf1, 0x44, 0x60, 0xe2, 0xae, 0xa3, 0xe2, 0xd0,
0xeb, 0x68, 0xee, 0xe2, 0x3b, 0x4d, 0x12, 0x05, 0x6b, 0xa8, 0x89, 0x2c,
0x3f, 0x01, 0x3a, 0x0f, 0x75, 0x5f, 0x43, 0x2b, 0xd8, 0x31, 0xb0, 0xb6,
0x2e, 0xd4, 0xe0, 0x32, 0xf4, 0x13, 0x7f, 0xdf, 0x2e, 0xf5, 0x1b, 0xdd,
0x0c, 0x78, 0xd0, 0x53, 0x2c, 0x32, 0x2b, 0x20, 0xee, 0xcc, 0x63, 0x18,
0xd7, 0xeb, 0x67, 0xf2, 0xfc, 0x7f, 0xeb, 0x18, 0x1b, 0x38, 0x03, 0x13,
0x17, 0x8a, 0x2b, 0x5b, 0xf3, 0x00, 0x4f, 0xea, 0x09, 0x3e, 0x05, 0xc6,
0x57, 0xef, 0xb8, 0x13, 0x2d, 0xae, 0x39, 0xcd, 0x43, 0x03, 0x36, 0x24,
0xff, 0xf1, 0xd5, 0xec, 0x33, 0xd4, 0x12, 0xe6, 0x00, 0x36, 0x81, 0xea,
0xf4, 0xf6, 0x28, 0xac, 0x2e, 0xde, 0x04, 0x07, 0xf8, 0xf6, 0x53, 0xfa,
0x46, 0x27, 0x1c, 0x22, 0xfe, 0xe4, 0x09, 0x7f, 0x2c, 0xef, 0xd9, 0xe8,
0x17, 0x13, 0x35, 0x27, 0x19, 0x3c, 0x14, 0x00, 0x69, 0x18, 0xcf, 0xb8,
0x01, 0xf8, 0xdd, 0xe2, 0xef, 0xcf, 0x47, 0x0e, 0x0b, 0x62, 0x2c, 0x25,
0x15, 0xe4, 0x3f, 0x07, 0x56, 0xf4, 0xff, 0xff, 0x04, 0x00, 0x00, 0x00,
0x0c, 0x00, 0x00, 0x00, 0xff, 0xff, 0xff, 0xff, 0x0c, 0x00, 0x00, 0x00,
0x08, 0x00, 0x00, 0x00, 0x6e, 0xf4, 0xff, 0xff, 0x04, 0x00, 0x00, 0x00,
0x0c, 0x00, 0x00, 0x00, 0xff, 0xff, 0xff, 0xff, 0x0c, 0x00, 0x00, 0x00,
0x10, 0x00, 0x00, 0x00, 0x86, 0xf4, 0xff, 0xff, 0x04, 0x00, 0x00, 0x00,
0x0c, 0x00, 0x00, 0x00, 0xff, 0xff, 0xff, 0xff, 0x19, 0x00, 0x00, 0x00,
0x10, 0x00, 0x00, 0x00, 0x9e, 0xf4, 0xff, 0xff, 0x04, 0x00, 0x00, 0x00,
0x0c, 0x00, 0x00, 0x00, 0xff, 0xff, 0xff, 0xff, 0x19, 0x00, 0x00, 0x00,
0x20, 0x00, 0x00, 0x00, 0xb6, 0xf4, 0xff, 0xff, 0x04, 0x00, 0x00, 0x00,
0x0c, 0x00, 0x00, 0x00, 0xff, 0xff, 0xff, 0xff, 0x33, 0x00, 0x00, 0x00,
0x20, 0x00, 0x00, 0x00, 0xce, 0xf4, 0xff, 0xff, 0x04, 0x00, 0x00, 0x00,
0x20, 0x00, 0x00, 0x00, 0x9c, 0xf1, 0x90, 0x3e, 0x41, 0xb4, 0x4e, 0xbe,
0x99, 0x0c, 0x87, 0xbe, 0x83, 0x4d, 0x41, 0x3e, 0xdc, 0xde, 0x95, 0xbc,
0x23, 0x60, 0x63, 0xbd, 0x3f, 0xc5, 0x2d, 0x3e, 0x66, 0xcf, 0xa0, 0xbe,
0xfa, 0xf4, 0xff, 0xff, 0x04, 0x00, 0x00, 0x00, 0x40, 0x00, 0x00, 0x00,
0xd5, 0xdb, 0x91, 0xbe, 0x09, 0x60, 0x0d, 0xbe, 0xa3, 0xe8, 0x6a, 0xbe,
0x4e, 0x70, 0x03, 0xbf, 0xa5, 0xa4, 0x06, 0x3f, 0x79, 0xc4, 0x56, 0xbf,
0x06, 0xf4, 0x52, 0xbe, 0x50, 0x0a, 0xaa, 0x3e, 0x69, 0x48, 0x23, 0xbd,
0x36, 0xab, 0x35, 0x3d, 0xe8, 0x8d, 0x35, 0x3f, 0x8b, 0x20, 0x4c, 0xbe,
0xfa, 0xdc, 0x7a, 0x3c, 0x77, 0xc7, 0x2a, 0x3e, 0x21, 0x70, 0x19, 0x3f,
0xdf, 0x7c, 0x3e, 0x3e, 0x46, 0xf5, 0xff, 0xff, 0x04, 0x00, 0x00, 0x00,
0x80, 0x00, 0x00, 0x00, 0xa6, 0x11, 0x6f, 0x3d, 0x7d, 0x94, 0x9b, 0xbe,
0x04, 0x3d, 0x2a, 0x3e, 0x83, 0xee, 0xd2, 0xbe, 0xe2, 0x0b, 0x47, 0xbe,
0x2e, 0x9f, 0x13, 0x3c, 0x4e, 0xd7, 0x67, 0x3d, 0x95, 0x68, 0xa4, 0x3e,
0xef, 0xd9, 0xc3, 0x3e, 0xd0, 0xb1, 0xaa, 0x3e, 0xe7, 0x55, 0xa0, 0xbd,
0x56, 0xc2, 0xef, 0xbe, 0xd9, 0x82, 0x40, 0x3e, 0x66, 0xda, 0x9e, 0xbe,
0xa9, 0x0a, 0x9b, 0xbd, 0xe4, 0x87, 0x85, 0xbe, 0x0c, 0x10, 0x91, 0xbe,
0x15, 0xc7, 0x1f, 0xbe, 0x22, 0x27, 0x62, 0xbe, 0xc4, 0x4f, 0xd2, 0xbd,
0xe4, 0xc0, 0xe8, 0xbe, 0x76, 0x0e, 0x8d, 0x3e, 0x0d, 0x2d, 0xed, 0xbe,
0x46, 0x9f, 0x1a, 0x3e, 0xd7, 0x79, 0x13, 0x3e, 0x49, 0x7f, 0x87, 0xbd,
0x76, 0x94, 0xd4, 0xbc, 0x77, 0xb7, 0x9a, 0xbe, 0x32, 0xbf, 0xad, 0xbd,
0x1d, 0xa0, 0x92, 0xbe, 0xe2, 0xb6, 0x25, 0xbe, 0x83, 0xaf, 0x3c, 0x3f,
0xd2, 0xf5, 0xff, 0xff, 0x04, 0x00, 0x00, 0x00, 0x00, 0x06, 0x00, 0x00,
0x87, 0x29, 0x8a, 0x3d, 0xb4, 0x7a, 0x11, 0x3e, 0x10, 0x22, 0xc3, 0xbb,
0x4e, 0xd6, 0x09, 0x3d, 0x08, 0x34, 0xb3, 0xbe, 0xfe, 0xce, 0xf1, 0xbd,
0x15, 0x37, 0x7b, 0x3d, 0x3b, 0x6a, 0x95, 0x3c, 0xb2, 0x9b, 0x43, 0xbd,
0xb0, 0x71, 0xb5, 0x3d, 0x38, 0x62, 0x1b, 0x3d, 0xcf, 0x5d, 0x4e, 0x3d,
0x7c, 0x5e, 0x97, 0xbd, 0xf7, 0xe2, 0x14, 0xbd, 0x85, 0x7c, 0x42, 0x3e,
0x9b, 0xb9, 0xe7, 0x3d, 0x82, 0xe7, 0xad, 0xbd, 0x5e, 0xf2, 0xcd, 0xbc,
0x97, 0xa2, 0x0e, 0x3e, 0xcf, 0xc0, 0x22, 0x3d, 0xf7, 0x01, 0x7c, 0xbe,
0x64, 0x9d, 0xab, 0xbd, 0x44, 0x43, 0x22, 0x3e, 0xac, 0x40, 0xe7, 0xbc,
0x96, 0x9e, 0x13, 0xbe, 0x63, 0x6f, 0x1f, 0x3d, 0xb0, 0x53, 0xd8, 0xbd,
0x24, 0x4b, 0xcb, 0x3d, 0xc0, 0x93, 0x02, 0xbe, 0x89, 0xaf, 0xa2, 0xbe,
0xf9, 0x39, 0xf8, 0x3e, 0x2b, 0xec, 0x3f, 0xbd, 0x0a, 0xa7, 0xaf, 0xbd,
0xd2, 0x86, 0x02, 0x3e, 0x8e, 0x37, 0x43, 0x3d, 0x19, 0x82, 0xf8, 0xbc,
0x60, 0x9e, 0xe7, 0xbd, 0xd2, 0xd3, 0x91, 0xbd, 0x1f, 0xb4, 0x05, 0x3d,
0x0b, 0xdb, 0x92, 0x3d, 0xcf, 0x5f, 0xb2, 0xbd, 0x09, 0x16, 0xa1, 0xbd,
0xc8, 0xf5, 0x31, 0xbe, 0x46, 0xfb, 0xef, 0xbc, 0x2d, 0xa1, 0x05, 0xbe,
0x9e, 0xc7, 0x46, 0xbe, 0x1b, 0x09, 0x15, 0x3e, 0x4c, 0x4f, 0x83, 0x3d,
0x3d, 0xd6, 0xac, 0xbd, 0x0a, 0xb4, 0x04, 0x3d, 0xb8, 0x44, 0xe4, 0x3d,
0x00, 0x50, 0x94, 0x3d, 0x36, 0xb4, 0xe8, 0xbd, 0x4c, 0x9d, 0x14, 0x3d,
0x82, 0x60, 0x65, 0x3d, 0x1a, 0x07, 0xca, 0xbd, 0xd7, 0xc9, 0x4f, 0x3e,
0x6a, 0x82, 0x4c, 0x3d, 0xea, 0xb5, 0x5a, 0xbe, 0x22, 0x0c, 0xb4, 0xbe,
0x24, 0x18, 0x2a, 0xbc, 0x9d, 0x7f, 0xa1, 0xbc, 0x13, 0x9e, 0x02, 0xbe,
0x34, 0xe3, 0xa4, 0xbd, 0xe7, 0x0e, 0xc6, 0xbd, 0xe4, 0xfd, 0x7f, 0xbd,
0x6c, 0x52, 0x35, 0x3e, 0x67, 0xa4, 0x26, 0xbd, 0x56, 0x6c, 0x55, 0xbe,
0x10, 0xba, 0x7e, 0x3d, 0xbf, 0xa3, 0x0c, 0xbc, 0x27, 0x67, 0xa5, 0xbd,
0xda, 0xbb, 0x87, 0x3e, 0x2c, 0xf1, 0x6d, 0x3e, 0xc7, 0xd7, 0xc1, 0xbd,
0xcd, 0x37, 0x97, 0x3c, 0x92, 0x4d, 0x4b, 0xbd, 0x28, 0x87, 0xe9, 0x3c,
0x6d, 0xad, 0x0c, 0xbe, 0x38, 0x7f, 0x53, 0xbe, 0x07, 0x1d, 0xe9, 0x3d,
0xfc, 0x35, 0x5b, 0x3e, 0x1d, 0x32, 0xe4, 0x3b, 0xb3, 0xaf, 0xd3, 0x3d,
0xdc, 0xca, 0x64, 0xbc, 0x9e, 0x67, 0x12, 0x3d, 0x46, 0x47, 0x29, 0x3e,
0xfa, 0x8a, 0xa2, 0xbd, 0x12, 0xf2, 0xed, 0x3d, 0xa4, 0x80, 0x1a, 0xbc,
0x31, 0x3b, 0x91, 0x3d, 0x2f, 0x86, 0xe0, 0x3d, 0xc3, 0xb2, 0xd5, 0xbd,
0x0e, 0x0b, 0x2e, 0xbe, 0x89, 0xb0, 0x19, 0xbc, 0x1e, 0x83, 0x93, 0xbd,
0x49, 0xa5, 0xeb, 0xbd, 0x3f, 0xac, 0xc1, 0x3d, 0x5a, 0x16, 0x2d, 0xbd,
0xee, 0xd5, 0xa5, 0x3d, 0x1c, 0x2d, 0x83, 0xbc, 0xab, 0x90, 0x89, 0xbb,
0x31, 0x96, 0xa1, 0x3d, 0x84, 0xba, 0x09, 0x3e, 0xa7, 0xd4, 0x86, 0x3d,
0xfa, 0xb7, 0x0f, 0x3d, 0x9f, 0xe9, 0x65, 0xbe, 0xfb, 0x77, 0x37, 0x3d,
0x45, 0xa6, 0xee, 0xbd, 0xde, 0x77, 0x23, 0x3e, 0xcd, 0x5e, 0x07, 0xbc,
0xb2, 0x2d, 0xac, 0xbc, 0x5b, 0x4f, 0x85, 0xbd, 0x55, 0x8b, 0x82, 0xbc,
0x39, 0xcc, 0x3a, 0x3d, 0x81, 0x33, 0xfb, 0xbd, 0x21, 0x2c, 0x3e, 0x3e,
0x27, 0x38, 0x8d, 0xbc, 0xdc, 0x5f, 0x40, 0x3e, 0x3c, 0x23, 0x88, 0x3d,
0xf9, 0x20, 0x0a, 0xbd, 0x0d, 0xf9, 0x07, 0x3d, 0xfb, 0x63, 0xd1, 0x3b,
0x09, 0x17, 0x27, 0x3e, 0x59, 0xf1, 0xab, 0xbc, 0xb9, 0xe9, 0x89, 0xbe,
0x61, 0xc5, 0x8e, 0xbc, 0x72, 0x14, 0xb2, 0xbd, 0x1c, 0x93, 0x78, 0xbd,
0x9f, 0x08, 0x11, 0xbe, 0x2f, 0xab, 0x9a, 0x3d, 0xc7, 0x35, 0xb3, 0xbd,
0x8b, 0xdf, 0x9a, 0x3e, 0xb7, 0x74, 0xec, 0xbd, 0x21, 0x4a, 0xda, 0xbd,
0x15, 0x0e, 0x66, 0x3e, 0x2a, 0x46, 0x6f, 0xbd, 0xc1, 0x59, 0x90, 0x3d,
0x1b, 0xd4, 0x03, 0x3e, 0x04, 0x95, 0x3a, 0x3e, 0x8b, 0x4b, 0x12, 0xbe,
0x92, 0x1f, 0x3d, 0x3e, 0x70, 0xc8, 0x0a, 0xbe, 0xc4, 0x33, 0xd6, 0xbd,
0x11, 0x09, 0x9e, 0xbe, 0xa4, 0xc6, 0xf8, 0xbd, 0xa0, 0x16, 0x83, 0xbe,
0x33, 0x5a, 0xbf, 0xbc, 0x66, 0x45, 0x2a, 0xbe, 0xe2, 0x45, 0x03, 0xbe,
0x3e, 0x0a, 0x56, 0x3d, 0x35, 0x2d, 0xf4, 0xbd, 0x83, 0xcc, 0x82, 0xbd,
0x8b, 0xe6, 0x92, 0xbd, 0x66, 0xcc, 0xd3, 0x3e, 0x61, 0xb4, 0x18, 0xbc,
0xc5, 0x7c, 0x02, 0xbe, 0x70, 0x73, 0x41, 0x3e, 0x53, 0x37, 0x6c, 0xbe,
0xda, 0x5d, 0x64, 0xbe, 0xb9, 0xdc, 0xbb, 0xbe, 0x10, 0x12, 0xeb, 0xbd,
0x03, 0xc5, 0x1c, 0xbe, 0x6d, 0x0a, 0xdc, 0xbd, 0x15, 0xcc, 0x25, 0x3e,
0x4a, 0x78, 0xa0, 0xbd, 0xab, 0xa3, 0xb1, 0xbd, 0x4d, 0xd1, 0x54, 0xbe,
0x2e, 0x3b, 0x6f, 0xbe, 0x22, 0x93, 0x79, 0xbd, 0xd8, 0x18, 0xb5, 0x3e,
0x9e, 0x2d, 0x59, 0xbd, 0x29, 0xb2, 0xb3, 0xbe, 0x42, 0x77, 0x84, 0x3c,
0x4b, 0x54, 0x76, 0xbd, 0xfa, 0xe5, 0x2d, 0xbe, 0x54, 0x30, 0xe6, 0xbe,
0x86, 0x95, 0x89, 0xbe, 0x65, 0x48, 0xb0, 0xbd, 0x64, 0xfe, 0xf4, 0xbd,
0xba, 0x89, 0xeb, 0x3c, 0x13, 0x58, 0x96, 0xbd, 0x3d, 0xe6, 0xd2, 0xbc,
0x08, 0x6b, 0x1a, 0x3e, 0x0e, 0x23, 0xc7, 0xbe, 0x54, 0x70, 0x52, 0xbc,
0x01, 0xef, 0x92, 0x3e, 0x72, 0x82, 0x8a, 0xbe, 0x8f, 0x19, 0x7a, 0x3d,
0x2d, 0xe4, 0x7f, 0x3e, 0xdd, 0x2c, 0xa8, 0xbd, 0xd3, 0x11, 0x7a, 0xbe,
0xb0, 0xd4, 0x87, 0xbd, 0x5d, 0xdd, 0xc0, 0xbd, 0x64, 0x63, 0x84, 0xbe,
0x56, 0x21, 0xec, 0xbd, 0xde, 0xb7, 0xfd, 0x3b, 0xdf, 0x46, 0x5f, 0xbe,
0x78, 0x30, 0x92, 0xbd, 0x92, 0x0f, 0x8b, 0xbe, 0x1a, 0x29, 0x4b, 0xbe,
0x02, 0x51, 0x03, 0xbe, 0x7e, 0xb8, 0xb2, 0xbd, 0xb3, 0x06, 0x71, 0xbe,
0x37, 0x7c, 0x4c, 0x3e, 0x4f, 0x3c, 0x68, 0x3e, 0xf5, 0x65, 0xa7, 0x3d,
0x81, 0x1f, 0xac, 0x3d, 0x56, 0x09, 0x7a, 0xbd, 0xac, 0x5c, 0x80, 0xbd,
0x27, 0xe7, 0x02, 0xbe, 0xd8, 0x56, 0xd9, 0xbd, 0x98, 0x8d, 0xb4, 0x3d,
0x1d, 0x64, 0x1d, 0xbe, 0x3e, 0x5b, 0x00, 0x3e, 0xdb, 0xb9, 0xf7, 0x3d,
0x99, 0x74, 0xc6, 0xbd, 0xc3, 0x6a, 0x5c, 0xbd, 0x87, 0xdd, 0x25, 0xbe,
0xb6, 0xc4, 0xfb, 0x3d, 0x61, 0x7f, 0xe7, 0xbd, 0x85, 0xab, 0x74, 0xbe,
0x32, 0xdd, 0x6d, 0xbb, 0xfe, 0x5a, 0x02, 0x3e, 0x62, 0x4c, 0x76, 0xbe,
0x37, 0x88, 0x02, 0xbd, 0xf6, 0x7a, 0x85, 0xbe, 0x73, 0x48, 0x60, 0xbe,
0xb9, 0x1d, 0xc3, 0x3d, 0x9f, 0x8d, 0xd4, 0xbd, 0xb1, 0x65, 0x70, 0xbe,
0x42, 0xaa, 0x0d, 0xbe, 0x7c, 0xff, 0x1e, 0xbe, 0x1b, 0x04, 0x55, 0xbd,
0x6c, 0x62, 0xc3, 0x3c, 0x4e, 0x9f, 0x8e, 0xbd, 0x62, 0x70, 0xb4, 0x3e,
0xef, 0x84, 0xaa, 0x3c, 0x8e, 0xc9, 0x7c, 0x3e, 0x95, 0x3c, 0x14, 0xbd,
0x3a, 0x15, 0xa8, 0x3d, 0x31, 0x6d, 0x3b, 0x3d, 0xe2, 0x42, 0x51, 0x3d,
0x99, 0xdb, 0x7e, 0xbd, 0x1c, 0x62, 0x3c, 0x3d, 0x65, 0x0b, 0xaa, 0xbd,
0xb6, 0x60, 0x2c, 0x3d, 0xac, 0xea, 0xe8, 0x3d, 0x3d, 0x9a, 0xa8, 0xbe,
0x5b, 0x6e, 0x3c, 0x3d, 0x1d, 0x7d, 0x89, 0xbe, 0xba, 0x4b, 0x2b, 0xbc,
0x05, 0x84, 0x99, 0x3e, 0x6c, 0x51, 0x29, 0x3e, 0x06, 0x70, 0x22, 0xbe,
0x50, 0x78, 0x0d, 0xbd, 0xe2, 0x3b, 0x5c, 0x3d, 0x92, 0xa0, 0x8d, 0x3d,
0x00, 0x35, 0x8a, 0xbd, 0x0e, 0xf2, 0xa6, 0xbd, 0xd6, 0xbb, 0xb5, 0xbd,
0x74, 0xd8, 0x43, 0x3e, 0xe2, 0x6a, 0x9d, 0x3d, 0x62, 0xb5, 0x4a, 0xbe,
0xa5, 0x15, 0x05, 0x3d, 0x45, 0xd7, 0x98, 0xbe, 0x62, 0xfe, 0x6b, 0xbe,
0xe0, 0x57, 0xc7, 0x3c, 0xe4, 0xcb, 0xf8, 0x3d, 0x86, 0x30, 0x94, 0x3d,
0xec, 0x3f, 0x6d, 0xbe, 0x30, 0x9e, 0xac, 0xbd, 0x92, 0xc8, 0xca, 0xbd,
0xd4, 0x03, 0xa2, 0x3c, 0x60, 0xfb, 0xe5, 0xbb, 0xaf, 0x89, 0x5f, 0x3d,
0x05, 0x56, 0x07, 0xbe, 0x79, 0xcb, 0x14, 0x3b, 0x48, 0x70, 0x2a, 0xbe,
0xf8, 0x44, 0xe8, 0xbd, 0x2f, 0xa0, 0x4b, 0x3e, 0xa2, 0xfd, 0x6e, 0x3b,
0x58, 0x54, 0x89, 0xbd, 0x1a, 0x56, 0x1d, 0x3e, 0x9e, 0x72, 0x17, 0x3e,
0x99, 0x2f, 0xd5, 0x3d, 0xa5, 0x28, 0x2e, 0xbe, 0x67, 0xf0, 0x48, 0xbe,
0x51, 0x29, 0x48, 0x3d, 0x58, 0xa9, 0x6d, 0x3d, 0xb2, 0x8b, 0x0a, 0xbd,
0xe4, 0x69, 0x85, 0xbe, 0xd6, 0x50, 0xf4, 0x3d, 0xed, 0xda, 0xd8, 0xbb,
0x60, 0x11, 0xa9, 0x3d, 0x04, 0x02, 0xae, 0x3e, 0x40, 0x2d, 0x76, 0xbd,
0x20, 0xab, 0xdb, 0x3d, 0xfd, 0x81, 0x7e, 0x3e, 0x2d, 0x42, 0x48, 0x3e,
0x8e, 0x97, 0x21, 0xbe, 0xe5, 0x23, 0x71, 0x3e, 0x38, 0x83, 0x4b, 0xbe,
0xc0, 0xb0, 0x23, 0xbe, 0x2f, 0x1a, 0x8b, 0xbd, 0x26, 0xd7, 0x07, 0x3d,
0x18, 0xec, 0xd7, 0xbd, 0xc1, 0x81, 0xbf, 0xbd, 0xfa, 0x8e, 0x85, 0x3e,
0x5c, 0x64, 0x0d, 0xbd, 0xcd, 0x92, 0x6b, 0x3e, 0x2a, 0x4d, 0x2e, 0x3e,
0xbb, 0x6c, 0x21, 0x3c, 0xa3, 0x3d, 0xde, 0x3c, 0xf4, 0xd7, 0x84, 0x3d,
0x2b, 0xd5, 0xb7, 0x3d, 0x31, 0x25, 0x57, 0xbe, 0xee, 0xd5, 0x08, 0xbe,
0x39, 0x9b, 0x80, 0xbe, 0xc7, 0x76, 0x95, 0xbe, 0x00, 0x6d, 0xce, 0xbd,
0x02, 0x2d, 0x7e, 0xbb, 0x09, 0x2f, 0xdb, 0x3b, 0x1f, 0xa9, 0x38, 0x3d,
0x15, 0xd2, 0x89, 0x3e, 0x1d, 0x69, 0x8d, 0xbd, 0x4a, 0x10, 0x38, 0x3e,
0x78, 0xd6, 0xa6, 0x3e, 0xbf, 0x43, 0xe6, 0xbc, 0xed, 0x36, 0x33, 0x3e,
0xa1, 0xf2, 0xc5, 0x3e, 0x08, 0x5c, 0x30, 0x3e, 0xd7, 0x5b, 0x25, 0xbe,
0xc5, 0x0a, 0x1c, 0xbe, 0x4b, 0xd3, 0x1b, 0xbe, 0xfc, 0x97, 0x00, 0xbe,
0x4f, 0x3c, 0x55, 0x3e, 0xff, 0x58, 0x02, 0x3e, 0x88, 0x4f, 0x03, 0x3e,
0xef, 0x0a, 0x10, 0x3e, 0xf3, 0x71, 0x15, 0xbe, 0xcf, 0xe5, 0x3d, 0x3d,
0x3d, 0xa9, 0xc4, 0x3d, 0x00, 0xd9, 0x0a, 0xbe, 0x40, 0xeb, 0x21, 0x3b,
0x73, 0x52, 0x9e, 0xbd, 0x7c, 0xe5, 0xc2, 0xbe, 0x7e, 0x13, 0x0a, 0x3d,
0xc9, 0xb3, 0xca, 0xbd, 0x48, 0xc9, 0x23, 0x3e, 0xdd, 0x2d, 0x80, 0xbd,
0x9d, 0x7d, 0xbc, 0xbd, 0x3d, 0x08, 0x48, 0xbe, 0x27, 0x1c, 0x36, 0x3e,
0x49, 0x04, 0xac, 0x3c, 0x36, 0xfa, 0x0b, 0x3d, 0xad, 0xb0, 0xaa, 0x3d,
0x2f, 0x70, 0x49, 0xbc, 0x93, 0x17, 0xa2, 0x3e, 0x45, 0x27, 0xa3, 0xbe,
0x59, 0x8a, 0x92, 0x3e, 0x18, 0xa9, 0xa7, 0xbc, 0x1e, 0xbd, 0xb8, 0xbe,
0xe8, 0xf1, 0xca, 0xbd, 0x8f, 0xa1, 0x89, 0xbd, 0x42, 0x6e, 0xbd, 0xbd,
0x4b, 0x6f, 0xe5, 0xbd, 0x99, 0x66, 0xe3, 0xbd, 0xd8, 0x10, 0x06, 0x3e,
0xb7, 0x84, 0x38, 0x3b, 0xe5, 0x7d, 0x1f, 0x3e, 0x1d, 0x1a, 0x86, 0x3d,
0xde, 0x12, 0x43, 0xbe, 0x8a, 0xd5, 0x41, 0x3e, 0x29, 0x1f, 0xac, 0x3c,
0x6f, 0x73, 0x8c, 0xbd, 0x6e, 0x34, 0x8e, 0x3e, 0xa4, 0x5c, 0xd1, 0x3d,
0xca, 0x10, 0xbc, 0xbe, 0x64, 0xa7, 0xf6, 0xbb, 0x73, 0xee, 0x41, 0xbd,
0xd8, 0xde, 0x88, 0xbe, 0x4f, 0x0f, 0xc5, 0xbd, 0xc7, 0x38, 0x35, 0xbe,
0xde, 0xfb, 0xff, 0xff, 0x04, 0x00, 0x00, 0x00, 0x10, 0x00, 0x00, 0x00,
0x10, 0x21, 0x04, 0xbf, 0x1a, 0xa9, 0x91, 0xbd, 0x2d, 0xd5, 0xf2, 0x3d,
0x0c, 0xae, 0x18, 0x3e, 0xfa, 0xfb, 0xff, 0xff, 0x04, 0x00, 0x00, 0x00,
0x04, 0x00, 0x00, 0x00, 0x02, 0x00, 0x00, 0x00, 0x0a, 0xfc, 0xff, 0xff,
0x04, 0x00, 0x00, 0x00, 0x08, 0x00, 0x00, 0x00, 0xff, 0xff, 0xff, 0xff,
0x30, 0x00, 0x00, 0x00, 0x1e, 0xfc, 0xff, 0xff, 0x04, 0x00, 0x00, 0x00,
0x04, 0x00, 0x00, 0x00, 0xfd, 0xff, 0xff, 0xff, 0x2e, 0xfc, 0xff, 0xff,
0x04, 0x00, 0x00, 0x00, 0x00, 0x03, 0x00, 0x00, 0xf4, 0x71, 0x81, 0x3d,
0x9b, 0xed, 0x11, 0xbe, 0xf1, 0x03, 0x76, 0x3e, 0x99, 0x43, 0x6d, 0x3e,
0x6a, 0x53, 0x9b, 0x3e, 0xde, 0xb8, 0x16, 0x3e, 0x3b, 0x28, 0x48, 0x3e,
0x13, 0xec, 0xa7, 0x3d, 0x23, 0x58, 0x74, 0xbe, 0xd9, 0x61, 0x61, 0xbe,
0xd3, 0xf0, 0xf7, 0x3d, 0x46, 0x35, 0x03, 0x3d, 0xa2, 0xe6, 0x1e, 0xbe,
0x59, 0x25, 0x12, 0xbe, 0xd1, 0x66, 0xf9, 0x3d, 0x58, 0xb4, 0x28, 0xbe,
0x9c, 0x48, 0x1d, 0xbc, 0x07, 0xb2, 0x88, 0xbe, 0xe6, 0x36, 0x7d, 0x3e,
0xf8, 0xa6, 0x6c, 0x3e, 0x80, 0xde, 0x3c, 0xbe, 0x4d, 0x8e, 0x25, 0xbd,
0x64, 0x1e, 0xb2, 0x3e, 0xc5, 0x0c, 0xc2, 0xbd, 0x2c, 0x8e, 0x01, 0xbf,
0x56, 0xaf, 0x9b, 0xbe, 0xed, 0x7c, 0x02, 0xbe, 0x78, 0xc3, 0x6f, 0x3e,
0x46, 0xcd, 0xf8, 0xbd, 0x68, 0xed, 0x80, 0xbe, 0xec, 0x0d, 0xac, 0x3e,
0x57, 0x14, 0x6a, 0xbe, 0xb7, 0xf2, 0xb7, 0xbe, 0x08, 0xda, 0x85, 0xbe,
0x43, 0x31, 0x08, 0xbd, 0xd2, 0x85, 0x96, 0x3c, 0x5e, 0x29, 0xd8, 0x3c,
0x3c, 0x7d, 0xc2, 0xbd, 0x85, 0x4c, 0xaf, 0x3c, 0x58, 0xef, 0x0f, 0xbe,
0xa8, 0xbb, 0xdd, 0xbd, 0x75, 0x56, 0x25, 0xbe, 0xce, 0x3c, 0x10, 0x3d,
0x66, 0x8b, 0x92, 0x3e, 0x9f, 0x31, 0xfd, 0xbd, 0x3f, 0xd8, 0xb0, 0xbe,
0xba, 0x0f, 0xbb, 0x3d, 0xae, 0x0d, 0x1e, 0xbe, 0x3a, 0x3a, 0xe9, 0x3d,
0xd8, 0x4a, 0xfe, 0x3c, 0x84, 0xc9, 0xb8, 0x3d, 0x74, 0xeb, 0x86, 0xbb,
0xa7, 0x56, 0x8e, 0x3b, 0x91, 0xe0, 0xc5, 0x3d, 0x85, 0xd7, 0xe8, 0x3d,
0x06, 0x05, 0xf2, 0x3c, 0x17, 0xa0, 0xd9, 0x3d, 0x2c, 0xe7, 0xc3, 0x3d,
0xbc, 0x8d, 0x36, 0x3e, 0xc3, 0x70, 0x92, 0xbe, 0x6e, 0xb8, 0xf6, 0xbd,
0x2b, 0xd5, 0x28, 0x3e, 0xcd, 0x1f, 0xae, 0x3d, 0x60, 0xbe, 0xfb, 0x3d,
0x23, 0xd7, 0x93, 0x3e, 0x53, 0x0f, 0x23, 0x3d, 0x99, 0x05, 0xb6, 0x3d,
0x49, 0xa9, 0xf6, 0x3c, 0x87, 0x51, 0x31, 0x3d, 0xac, 0xee, 0xcd, 0x3d,
0x92, 0xeb, 0x79, 0x3e, 0x7d, 0x9d, 0x13, 0x3e, 0x49, 0xff, 0xb3, 0xbd,
0xa5, 0x4b, 0x0a, 0x3c, 0x29, 0x80, 0xfa, 0xbd, 0x43, 0x81, 0xfc, 0xbd,
0x5e, 0x8e, 0xdf, 0xbd, 0x0f, 0x61, 0xb6, 0x3d, 0x24, 0xa6, 0x60, 0x3e,
0x54, 0x80, 0x08, 0x3e, 0x1d, 0xec, 0x83, 0x3d, 0xbf, 0xfc, 0x7d, 0xbd,
0xb3, 0x23, 0x78, 0x3c, 0xdb, 0x69, 0x68, 0xbe, 0x78, 0x7f, 0xa2, 0x3d,
0x9d, 0xa2, 0x7b, 0x3e, 0x1b, 0x3d, 0xa6, 0xbc, 0xf6, 0xee, 0xf7, 0x3d,
0xa2, 0x3c, 0x4c, 0x3e, 0x88, 0x69, 0xcb, 0x3d, 0xf4, 0xb1, 0x07, 0x3d,
0xb6, 0x52, 0x0a, 0xbe, 0x56, 0xe3, 0x03, 0xbe, 0x41, 0x2b, 0x34, 0xbd,
0x3e, 0xb9, 0x35, 0x3d, 0xc2, 0x9e, 0x86, 0xbb, 0x22, 0xd5, 0x16, 0x3e,
0x4d, 0x14, 0x86, 0xbd, 0xea, 0x4b, 0x00, 0xbe, 0xc9, 0x03, 0xa0, 0xbe,
0xbf, 0xf4, 0xaf, 0x3c, 0x1d, 0xc8, 0x2d, 0x3b, 0x3f, 0x67, 0xad, 0xbd,
0xa4, 0x61, 0x99, 0xbd, 0xa3, 0x8b, 0xef, 0x3d, 0xf4, 0xee, 0xfb, 0x3c,
0x62, 0x16, 0xa4, 0xbd, 0x25, 0x83, 0xce, 0xbe, 0x3e, 0x5b, 0xb9, 0xbc,
0x23, 0x6e, 0x6c, 0xbe, 0xa5, 0xd1, 0xc7, 0x3b, 0x03, 0xbc, 0x29, 0x3d,
0x8c, 0x86, 0x9c, 0x3e, 0xcc, 0xb9, 0x8c, 0xbc, 0xa4, 0xff, 0x11, 0xbd,
0x54, 0xa2, 0xc6, 0x3d, 0x65, 0xbe, 0x2a, 0x3e, 0xf4, 0x10, 0xec, 0xbd,
0x6c, 0x18, 0xea, 0xbd, 0xa4, 0x04, 0xd6, 0x3d, 0x75, 0xae, 0x82, 0xbd,
0x67, 0xd2, 0xbd, 0xbd, 0xc7, 0xc2, 0x26, 0xbe, 0x69, 0xca, 0x3e, 0xbd,
0x2d, 0x83, 0xbc, 0x3d, 0xa5, 0x90, 0x5d, 0xbd, 0xed, 0x41, 0x53, 0x3c,
0xcf, 0x4b, 0x6e, 0x3d, 0x2b, 0x6a, 0xc1, 0x3d, 0x1f, 0x30, 0x0e, 0xbe,
0xcf, 0xc3, 0x66, 0xbe, 0x4a, 0x71, 0x49, 0xbe, 0x2d, 0x4b, 0x93, 0x3e,
0x3c, 0x57, 0xde, 0xbd, 0xd4, 0xa5, 0x82, 0xbe, 0x89, 0x9b, 0x80, 0x3d,
0x13, 0x68, 0x83, 0x3e, 0xe6, 0x27, 0xfe, 0xbc, 0x2d, 0x6c, 0xab, 0xbd,
0x46, 0xbd, 0x99, 0x3d, 0x1e, 0x53, 0x00, 0x3e, 0xd8, 0x3c, 0xb3, 0xbe,
0x7e, 0x5c, 0x90, 0xbe, 0xf3, 0x37, 0x0c, 0xbe, 0x1a, 0x90, 0x15, 0xbe,
0xba, 0x90, 0x7f, 0x3c, 0x44, 0xc3, 0xb1, 0xbe, 0x47, 0xf5, 0xe1, 0xbd,
0x86, 0x46, 0x6f, 0x3e, 0x95, 0x88, 0x71, 0x3d, 0x41, 0x93, 0x9a, 0xbd,
0x93, 0x9c, 0x59, 0x3b, 0xaa, 0x29, 0xd0, 0xbd, 0x53, 0xf9, 0x78, 0x3d,
0xc7, 0x3c, 0xdd, 0xbd, 0x3e, 0x38, 0x80, 0xbd, 0x44, 0x21, 0x11, 0x3d,
0x44, 0xfe, 0x70, 0x3e, 0x89, 0x77, 0x54, 0xbe, 0x94, 0xb1, 0x87, 0x3d,
0x7f, 0x65, 0xf7, 0x3c, 0x08, 0xbb, 0x0a, 0xbd, 0x43, 0xbf, 0xa5, 0xbe,
0xfe, 0x8c, 0xbc, 0x3d, 0x71, 0xc3, 0x50, 0x3e, 0xe1, 0x00, 0x40, 0x3e,
0x51, 0xfd, 0x0d, 0xbe, 0xb1, 0x39, 0xe3, 0x3d, 0xcd, 0x9d, 0xc8, 0xbe,
0x7b, 0x15, 0x05, 0xbd, 0x8b, 0xc9, 0x97, 0xbe, 0x1c, 0x72, 0x84, 0x3e,
0xdf, 0xad, 0x80, 0x3d, 0x4e, 0xc6, 0x0c, 0x3e, 0x56, 0xe8, 0xb7, 0xbd,
0x07, 0xc7, 0x85, 0x3d, 0x6e, 0x6d, 0x26, 0xbe, 0xb8, 0xea, 0xff, 0xbd,
0xd5, 0x7f, 0xb0, 0xbe, 0xa2, 0x3f, 0x3d, 0xbe, 0x0b, 0xd8, 0x89, 0x3e,
0x7a, 0xdf, 0x98, 0x3e, 0xdd, 0xff, 0x84, 0xbe, 0x11, 0x35, 0xf6, 0x3d,
0xdb, 0x33, 0x8f, 0xbd, 0x1c, 0xa8, 0x49, 0x3c, 0x3d, 0xe4, 0x7a, 0xbe,
0x73, 0xa2, 0x2b, 0x3e, 0x6d, 0x07, 0xd1, 0x3c, 0x2a, 0xf3, 0x06, 0xbd,
0xff, 0xe5, 0xcd, 0xbe, 0x56, 0x40, 0x86, 0xbd, 0xc0, 0xe7, 0xff, 0xff,
0xc4, 0xe7, 0xff, 0xff, 0x0f, 0x00, 0x00, 0x00, 0x4d, 0x4c, 0x49, 0x52,
0x20, 0x43, 0x6f, 0x6e, 0x76, 0x65, 0x72, 0x74, 0x65, 0x64, 0x2e, 0x00,
0x01, 0x00, 0x00, 0x00, 0x14, 0x00, 0x00, 0x00, 0x00, 0x00, 0x0e, 0x00,
0x18, 0x00, 0x14, 0x00, 0x10, 0x00, 0x0c, 0x00, 0x08, 0x00, 0x04, 0x00,
0x0e, 0x00, 0x00, 0x00, 0x14, 0x00, 0x00, 0x00, 0x1c, 0x00, 0x00, 0x00,
0x80, 0x04, 0x00, 0x00, 0x84, 0x04, 0x00, 0x00, 0x88, 0x04, 0x00, 0x00,
0x04, 0x00, 0x00, 0x00, 0x6d, 0x61, 0x69, 0x6e, 0x00, 0x00, 0x00, 0x00,
0x14, 0x00, 0x00, 0x00, 0x38, 0x04, 0x00, 0x00, 0xd8, 0x03, 0x00, 0x00,
0xa0, 0x03, 0x00, 0x00, 0x64, 0x03, 0x00, 0x00, 0x10, 0x03, 0x00, 0x00,
0xe8, 0x02, 0x00, 0x00, 0xb8, 0x02, 0x00, 0x00, 0x74, 0x02, 0x00, 0x00,
0x4c, 0x02, 0x00, 0x00, 0x1c, 0x02, 0x00, 0x00, 0xd8, 0x01, 0x00, 0x00,
0xb0, 0x01, 0x00, 0x00, 0x80, 0x01, 0x00, 0x00, 0x3c, 0x01, 0x00, 0x00,
0x14, 0x01, 0x00, 0x00, 0xe4, 0x00, 0x00, 0x00, 0xa0, 0x00, 0x00, 0x00,
0x78, 0x00, 0x00, 0x00, 0x40, 0x00, 0x00, 0x00, 0x04, 0x00, 0x00, 0x00,
0x82, 0xfc, 0xff, 0xff, 0x1c, 0x00, 0x00, 0x00, 0x00, 0x00, 0x00, 0x09,
0x1c, 0x00, 0x00, 0x00, 0x20, 0x00, 0x00, 0x00, 0x05, 0x00, 0x00, 0x00,
0x00, 0x00, 0x06, 0x00, 0x08, 0x00, 0x04, 0x00, 0x06, 0x00, 0x00, 0x00,
0x00, 0x00, 0x80, 0x3f, 0x01, 0x00, 0x00, 0x00, 0x24, 0x00, 0x00, 0x00,
0x01, 0x00, 0x00, 0x00, 0x23, 0x00, 0x00, 0x00, 0xba, 0xfc, 0xff, 0xff,
0x14, 0x00, 0x00, 0x00, 0x00, 0x00, 0x00, 0x08, 0x10, 0x00, 0x00, 0x00,
0x14, 0x00, 0x00, 0x00, 0x04, 0x00, 0x00, 0x00, 0xbc, 0xe8, 0xff, 0xff,
0x01, 0x00, 0x00, 0x00, 0x23, 0x00, 0x00, 0x00, 0x03, 0x00, 0x00, 0x00,
0x22, 0x00, 0x00, 0x00, 0x01, 0x00, 0x00, 0x00, 0x05, 0x00, 0x00, 0x00,
0x1e, 0xfd, 0xff, 0xff, 0x0c, 0x00, 0x00, 0x00, 0x10, 0x00, 0x00, 0x00,
0x02, 0x00, 0x00, 0x00, 0x01, 0x00, 0x00, 0x00, 0x22, 0x00, 0x00, 0x00,
0x02, 0x00, 0x00, 0x00, 0x21, 0x00, 0x00, 0x00, 0x03, 0x00, 0x00, 0x00,
0x12, 0xfd, 0xff, 0xff, 0x14, 0x00, 0x00, 0x00, 0x00, 0x00, 0x00, 0x05,
0x24, 0x00, 0x00, 0x00, 0x28, 0x00, 0x00, 0x00, 0x03, 0x00, 0x00, 0x00,
0xbe, 0xfd, 0xff, 0xff, 0x02, 0x00, 0x00, 0x00, 0x01, 0x00, 0x00, 0x00,
0x02, 0x00, 0x00, 0x00, 0x01, 0x00, 0x00, 0x00, 0x00, 0x00, 0x00, 0x01,
0x01, 0x00, 0x00, 0x00, 0x21, 0x00, 0x00, 0x00, 0x01, 0x00, 0x00, 0x00,
0x20, 0x00, 0x00, 0x00, 0xf6, 0xfc, 0xff, 0xff, 0x10, 0x00, 0x00, 0x00,
0x00, 0x00, 0x00, 0x34, 0x0c, 0x00, 0x00, 0x00, 0x10, 0x00, 0x00, 0x00,
0x50, 0xe9, 0xff, 0xff, 0x01, 0x00, 0x00, 0x00, 0x20, 0x00, 0x00, 0x00,
0x02, 0x00, 0x00, 0x00, 0x1f, 0x00, 0x00, 0x00, 0x04, 0x00, 0x00, 0x00,
0xae, 0xfd, 0xff, 0xff, 0x0c, 0x00, 0x00, 0x00, 0x10, 0x00, 0x00, 0x00,
0x02, 0x00, 0x00, 0x00, 0x01, 0x00, 0x00, 0x00, 0x1f, 0x00, 0x00, 0x00,
0x02, 0x00, 0x00, 0x00, 0x1e, 0x00, 0x00, 0x00, 0x0e, 0x00, 0x00, 0x00,
0xa2, 0xfd, 0xff, 0xff, 0x14, 0x00, 0x00, 0x00, 0x00, 0x00, 0x00, 0x01,
0x1c, 0x00, 0x00, 0x00, 0x20, 0x00, 0x00, 0x00, 0x01, 0x00, 0x00, 0x00,
0x94, 0xfd, 0xff, 0xff, 0x00, 0x00, 0x00, 0x01, 0x01, 0x00, 0x00, 0x00,
0x01, 0x00, 0x00, 0x00, 0x01, 0x00, 0x00, 0x00, 0x1e, 0x00, 0x00, 0x00,
0x03, 0x00, 0x00, 0x00, 0x1d, 0x00, 0x00, 0x00, 0x06, 0x00, 0x00, 0x00,
0x09, 0x00, 0x00, 0x00, 0x86, 0xfd, 0xff, 0xff, 0x10, 0x00, 0x00, 0x00,
0x00, 0x00, 0x00, 0x34, 0x0c, 0x00, 0x00, 0x00, 0x10, 0x00, 0x00, 0x00,
0xe0, 0xe9, 0xff, 0xff, 0x01, 0x00, 0x00, 0x00, 0x1d, 0x00, 0x00, 0x00,
0x02, 0x00, 0x00, 0x00, 0x1c, 0x00, 0x00, 0x00, 0x02, 0x00, 0x00, 0x00,
0x3e, 0xfe, 0xff, 0xff, 0x0c, 0x00, 0x00, 0x00, 0x10, 0x00, 0x00, 0x00,
0x02, 0x00, 0x00, 0x00, 0x01, 0x00, 0x00, 0x00, 0x1c, 0x00, 0x00, 0x00,
0x02, 0x00, 0x00, 0x00, 0x1b, 0x00, 0x00, 0x00, 0x0d, 0x00, 0x00, 0x00,
0x32, 0xfe, 0xff, 0xff, 0x14, 0x00, 0x00, 0x00, 0x00, 0x00, 0x00, 0x05,
0x24, 0x00, 0x00, 0x00, 0x28, 0x00, 0x00, 0x00, 0x03, 0x00, 0x00, 0x00,
0xde, 0xfe, 0xff, 0xff, 0x02, 0x00, 0x00, 0x00, 0x01, 0x00, 0x00, 0x00,
0x02, 0x00, 0x00, 0x00, 0x01, 0x00, 0x00, 0x00, 0x00, 0x00, 0x00, 0x01,
0x01, 0x00, 0x00, 0x00, 0x1b, 0x00, 0x00, 0x00, 0x01, 0x00, 0x00, 0x00,
0x1a, 0x00, 0x00, 0x00, 0x16, 0xfe, 0xff, 0xff, 0x10, 0x00, 0x00, 0x00,
0x00, 0x00, 0x00, 0x34, 0x0c, 0x00, 0x00, 0x00, 0x10, 0x00, 0x00, 0x00,
0x70, 0xea, 0xff, 0xff, 0x01, 0x00, 0x00, 0x00, 0x1a, 0x00, 0x00, 0x00,
0x02, 0x00, 0x00, 0x00, 0x19, 0x00, 0x00, 0x00, 0x04, 0x00, 0x00, 0x00,
0xce, 0xfe, 0xff, 0xff, 0x0c, 0x00, 0x00, 0x00, 0x10, 0x00, 0x00, 0x00,
0x02, 0x00, 0x00, 0x00, 0x01, 0x00, 0x00, 0x00, 0x19, 0x00, 0x00, 0x00,
0x02, 0x00, 0x00, 0x00, 0x18, 0x00, 0x00, 0x00, 0x0c, 0x00, 0x00, 0x00,
0xc2, 0xfe, 0xff, 0xff, 0x14, 0x00, 0x00, 0x00, 0x00, 0x00, 0x00, 0x01,
0x1c, 0x00, 0x00, 0x00, 0x20, 0x00, 0x00, 0x00, 0x01, 0x00, 0x00, 0x00,
0xb4, 0xfe, 0xff, 0xff, 0x00, 0x00, 0x00, 0x01, 0x01, 0x00, 0x00, 0x00,
0x01, 0x00, 0x00, 0x00, 0x01, 0x00, 0x00, 0x00, 0x18, 0x00, 0x00, 0x00,
0x03, 0x00, 0x00, 0x00, 0x17, 0x00, 0x00, 0x00, 0x10, 0x00, 0x00, 0x00,
0x08, 0x00, 0x00, 0x00, 0xa6, 0xfe, 0xff, 0xff, 0x10, 0x00, 0x00, 0x00,
0x00, 0x00, 0x00, 0x34, 0x0c, 0x00, 0x00, 0x00, 0x10, 0x00, 0x00, 0x00,
0x00, 0xeb, 0xff, 0xff, 0x01, 0x00, 0x00, 0x00, 0x17, 0x00, 0x00, 0x00,
0x02, 0x00, 0x00, 0x00, 0x16, 0x00, 0x00, 0x00, 0x02, 0x00, 0x00, 0x00,
0x5e, 0xff, 0xff, 0xff, 0x0c, 0x00, 0x00, 0x00, 0x10, 0x00, 0x00, 0x00,
0x02, 0x00, 0x00, 0x00, 0x01, 0x00, 0x00, 0x00, 0x16, 0x00, 0x00, 0x00,
0x02, 0x00, 0x00, 0x00, 0x15, 0x00, 0x00, 0x00, 0x0b, 0x00, 0x00, 0x00,
0x52, 0xff, 0xff, 0xff, 0x24, 0x00, 0x00, 0x00, 0x00, 0x00, 0x00, 0x05,
0x34, 0x00, 0x00, 0x00, 0x38, 0x00, 0x00, 0x00, 0x03, 0x00, 0x00, 0x00,
0x00, 0x00, 0x0e, 0x00, 0x18, 0x00, 0x17, 0x00, 0x10, 0x00, 0x0c, 0x00,
0x08, 0x00, 0x04, 0x00, 0x0e, 0x00, 0x00, 0x00, 0x02, 0x00, 0x00, 0x00,
0x01, 0x00, 0x00, 0x00, 0x02, 0x00, 0x00, 0x00, 0x01, 0x00, 0x00, 0x00,
0x00, 0x00, 0x00, 0x01, 0x01, 0x00, 0x00, 0x00, 0x15, 0x00, 0x00, 0x00,
0x01, 0x00, 0x00, 0x00, 0x14, 0x00, 0x00, 0x00, 0x46, 0xff, 0xff, 0xff,
0x10, 0x00, 0x00, 0x00, 0x00, 0x00, 0x00, 0x34, 0x0c, 0x00, 0x00, 0x00,
0x10, 0x00, 0x00, 0x00, 0xa0, 0xeb, 0xff, 0xff, 0x01, 0x00, 0x00, 0x00,
0x14, 0x00, 0x00, 0x00, 0x02, 0x00, 0x00, 0x00, 0x13, 0x00, 0x00, 0x00,
0x04, 0x00, 0x00, 0x00, 0x00, 0x00, 0x0a, 0x00, 0x10, 0x00, 0x0c, 0x00,
0x08, 0x00, 0x04, 0x00, 0x0a, 0x00, 0x00, 0x00, 0x0c, 0x00, 0x00, 0x00,
0x10, 0x00, 0x00, 0x00, 0x02, 0x00, 0x00, 0x00, 0x01, 0x00, 0x00, 0x00,
0x13, 0x00, 0x00, 0x00, 0x02, 0x00, 0x00, 0x00, 0x12, 0x00, 0x00, 0x00,
0x0a, 0x00, 0x00, 0x00, 0x00, 0x00, 0x0e, 0x00, 0x18, 0x00, 0x14, 0x00,
0x10, 0x00, 0x0c, 0x00, 0x0b, 0x00, 0x04, 0x00, 0x0e, 0x00, 0x00, 0x00,
0x20, 0x00, 0x00, 0x00, 0x00, 0x00, 0x00, 0x01, 0x28, 0x00, 0x00, 0x00,
0x2c, 0x00, 0x00, 0x00, 0x01, 0x00, 0x00, 0x00, 0x0c, 0x00, 0x10, 0x00,
0x00, 0x00, 0x0c, 0x00, 0x08, 0x00, 0x07, 0x00, 0x0c, 0x00, 0x00, 0x00,
0x00, 0x00, 0x00, 0x01, 0x01, 0x00, 0x00, 0x00, 0x01, 0x00, 0x00, 0x00,
0x01, 0x00, 0x00, 0x00, 0x12, 0x00, 0x00, 0x00, 0x03, 0x00, 0x00, 0x00,
0x11, 0x00, 0x00, 0x00, 0x0f, 0x00, 0x00, 0x00, 0x07, 0x00, 0x00, 0x00,
0x00, 0x00, 0x0e, 0x00, 0x14, 0x00, 0x00, 0x00, 0x10, 0x00, 0x0c, 0x00,
0x0b, 0x00, 0x04, 0x00, 0x0e, 0x00, 0x00, 0x00, 0x10, 0x00, 0x00, 0x00,
0x00, 0x00, 0x00, 0x34, 0x0c, 0x00, 0x00, 0x00, 0x10, 0x00, 0x00, 0x00,
0x68, 0xec, 0xff, 0xff, 0x01, 0x00, 0x00, 0x00, 0x11, 0x00, 0x00, 0x00,
0x02, 0x00, 0x00, 0x00, 0x00, 0x00, 0x00, 0x00, 0x02, 0x00, 0x00, 0x00,
0x01, 0x00, 0x00, 0x00, 0x24, 0x00, 0x00, 0x00, 0x01, 0x00, 0x00, 0x00,
0x00, 0x00, 0x00, 0x00, 0x25, 0x00, 0x00, 0x00, 0x40, 0x13, 0x00, 0x00,
0xe0, 0x12, 0x00, 0x00, 0x74, 0x12, 0x00, 0x00, 0x10, 0x12, 0x00, 0x00,
0xbc, 0x11, 0x00, 0x00, 0x68, 0x11, 0x00, 0x00, 0x14, 0x11, 0x00, 0x00,
0xbc, 0x10, 0x00, 0x00, 0x64, 0x10, 0x00, 0x00, 0x0c, 0x10, 0x00, 0x00,
0xb8, 0x0f, 0x00, 0x00, 0x64, 0x0f, 0x00, 0x00, 0x10, 0x0f, 0x00, 0x00,
0xbc, 0x0e, 0x00, 0x00, 0x68, 0x0e, 0x00, 0x00, 0x74, 0x0c, 0x00, 0x00,
0x4c, 0x0b, 0x00, 0x00, 0xd8, 0x0a, 0x00, 0x00, 0xf4, 0x09, 0x00, 0x00,
0x30, 0x09, 0x00, 0x00, 0xbc, 0x08, 0x00, 0x00, 0x48, 0x08, 0x00, 0x00,
0xdc, 0x07, 0x00, 0x00, 0x64, 0x07, 0x00, 0x00, 0x74, 0x06, 0x00, 0x00,
0xa8, 0x05, 0x00, 0x00, 0x30, 0x05, 0x00, 0x00, 0xbc, 0x04, 0x00, 0x00,
0x50, 0x04, 0x00, 0x00, 0xd8, 0x03, 0x00, 0x00, 0xe8, 0x02, 0x00, 0x00,
0x1c, 0x02, 0x00, 0x00, 0xa4, 0x01, 0x00, 0x00, 0x30, 0x01, 0x00, 0x00,
0xd4, 0x00, 0x00, 0x00, 0x60, 0x00, 0x00, 0x00, 0x04, 0x00, 0x00, 0x00,
0x6a, 0xed, 0xff, 0xff, 0x00, 0x00, 0x00, 0x01, 0x14, 0x00, 0x00, 0x00,
0x1c, 0x00, 0x00, 0x00, 0x1c, 0x00, 0x00, 0x00, 0x25, 0x00, 0x00, 0x00,
0x34, 0x00, 0x00, 0x00, 0x02, 0x00, 0x00, 0x00, 0xff, 0xff, 0xff, 0xff,
0x04, 0x00, 0x00, 0x00, 0x50, 0xed, 0xff, 0xff, 0x19, 0x00, 0x00, 0x00,
0x53, 0x74, 0x61, 0x74, 0x65, 0x66, 0x75, 0x6c, 0x50, 0x61, 0x72, 0x74,
0x69, 0x74, 0x69, 0x6f, 0x6e, 0x65, 0x64, 0x43, 0x61, 0x6c, 0x6c, 0x3a,
0x30, 0x00, 0x00, 0x00, 0x02, 0x00, 0x00, 0x00, 0x01, 0x00, 0x00, 0x00,
0x04, 0x00, 0x00, 0x00, 0xc2, 0xed, 0xff, 0xff, 0x00, 0x00, 0x00, 0x01,
0x14, 0x00, 0x00, 0x00, 0x1c, 0x00, 0x00, 0x00, 0x1c, 0x00, 0x00, 0x00,
0x24, 0x00, 0x00, 0x00, 0x4c, 0x00, 0x00, 0x00, 0x02, 0x00, 0x00, 0x00,
0xff, 0xff, 0xff, 0xff, 0x04, 0x00, 0x00, 0x00, 0xa8, 0xed, 0xff, 0xff,
0x30, 0x00, 0x00, 0x00, 0x73, 0x65, 0x71, 0x75, 0x65, 0x6e, 0x74, 0x69,
0x61, 0x6c, 0x2f, 0x64, 0x65, 0x6e, 0x73, 0x65, 0x2f, 0x4d, 0x61, 0x74,
0x4d, 0x75, 0x6c, 0x3b, 0x73, 0x65, 0x71, 0x75, 0x65, 0x6e, 0x74, 0x69,
0x61, 0x6c, 0x2f, 0x64, 0x65, 0x6e, 0x73, 0x65, 0x2f, 0x42, 0x69, 0x61,
0x73, 0x41, 0x64, 0x64, 0x00, 0x00, 0x00, 0x00, 0x02, 0x00, 0x00, 0x00,
0x01, 0x00, 0x00, 0x00, 0x04, 0x00, 0x00, 0x00, 0x32, 0xee, 0xff, 0xff,
0x00, 0x00, 0x00, 0x01, 0x14, 0x00, 0x00, 0x00, 0x1c, 0x00, 0x00, 0x00,
0x1c, 0x00, 0x00, 0x00, 0x23, 0x00, 0x00, 0x00, 0x34, 0x00, 0x00, 0x00,
0x02, 0x00, 0x00, 0x00, 0xff, 0xff, 0xff, 0xff, 0x30, 0x00, 0x00, 0x00,
0x18, 0xee, 0xff, 0xff, 0x1a, 0x00, 0x00, 0x00, 0x73, 0x65, 0x71, 0x75,
0x65, 0x6e, 0x74, 0x69, 0x61, 0x6c, 0x2f, 0x66, 0x6c, 0x61, 0x74, 0x74,
0x65, 0x6e, 0x2f, 0x52, 0x65, 0x73, 0x68, 0x61, 0x70, 0x65, 0x00, 0x00,
0x02, 0x00, 0x00, 0x00, 0x01, 0x00, 0x00, 0x00, 0x30, 0x00, 0x00, 0x00,
0x8a, 0xee, 0xff, 0xff, 0x00, 0x00, 0x00, 0x01, 0x14, 0x00, 0x00, 0x00,
0x24, 0x00, 0x00, 0x00, 0x24, 0x00, 0x00, 0x00, 0x22, 0x00, 0x00, 0x00,
0x44, 0x00, 0x00, 0x00, 0x04, 0x00, 0x00, 0x00, 0xff, 0xff, 0xff, 0xff,
0x06, 0x00, 0x00, 0x00, 0x01, 0x00, 0x00, 0x00, 0x08, 0x00, 0x00, 0x00,
0x78, 0xee, 0xff, 0xff, 0x22, 0x00, 0x00, 0x00, 0x73, 0x65, 0x71, 0x75,
0x65, 0x6e, 0x74, 0x69, 0x61, 0x6c, 0x2f, 0x6d, 0x61, 0x78, 0x5f, 0x70,
0x6f, 0x6f, 0x6c, 0x69, 0x6e, 0x67, 0x31, 0x64, 0x5f, 0x32, 0x2f, 0x4d,
0x61, 0x78, 0x50, 0x6f, 0x6f, 0x6c, 0x00, 0x00, 0x04, 0x00, 0x00, 0x00,
0x01, 0x00, 0x00, 0x00, 0x06, 0x00, 0x00, 0x00, 0x01, 0x00, 0x00, 0x00,
0x08, 0x00, 0x00, 0x00, 0xfa, 0xee, 0xff, 0xff, 0x00, 0x00, 0x00, 0x01,
0x14, 0x00, 0x00, 0x00, 0x24, 0x00, 0x00, 0x00, 0x24, 0x00, 0x00, 0x00,
0x21, 0x00, 0x00, 0x00, 0x48, 0x00, 0x00, 0x00, 0x04, 0x00, 0x00, 0x00,
0xff, 0xff, 0xff, 0xff, 0x0c, 0x00, 0x00, 0x00, 0x01, 0x00, 0x00, 0x00,
0x08, 0x00, 0x00, 0x00, 0xe8, 0xee, 0xff, 0xff, 0x25, 0x00, 0x00, 0x00,
0x73, 0x65, 0x71, 0x75, 0x65, 0x6e, 0x74, 0x69, 0x61, 0x6c, 0x2f, 0x6d,
0x61, 0x78, 0x5f, 0x70, 0x6f, 0x6f, 0x6c, 0x69, 0x6e, 0x67, 0x31, 0x64,
0x5f, 0x32, 0x2f, 0x45, 0x78, 0x70, 0x61, 0x6e, 0x64, 0x44, 0x69, 0x6d,
0x73, 0x00, 0x00, 0x00, 0x04, 0x00, 0x00, 0x00, 0x01, 0x00, 0x00, 0x00,
0x0c, 0x00, 0x00, 0x00, 0x01, 0x00, 0x00, 0x00, 0x08, 0x00, 0x00, 0x00,
0x6e, 0xef, 0xff, 0xff, 0x00, 0x00, 0x00, 0x01, 0x14, 0x00, 0x00, 0x00,
0x20, 0x00, 0x00, 0x00, 0x20, 0x00, 0x00, 0x00, 0x20, 0x00, 0x00, 0x00,
0xa0, 0x00, 0x00, 0x00, 0x03, 0x00, 0x00, 0x00, 0xff, 0xff, 0xff, 0xff,
0x0c, 0x00, 0x00, 0x00, 0x08, 0x00, 0x00, 0x00, 0x58, 0xef, 0xff, 0xff,
0x82, 0x00, 0x00, 0x00, 0x73, 0x65, 0x71, 0x75, 0x65, 0x6e, 0x74, 0x69,
0x61, 0x6c, 0x2f, 0x63, 0x6f, 0x6e, 0x76, 0x31, 0x64, 0x5f, 0x32, 0x2f,
0x52, 0x65, 0x6c, 0x75, 0x3b, 0x73, 0x65, 0x71, 0x75, 0x65, 0x6e, 0x74,
0x69, 0x61, 0x6c, 0x2f, 0x63, 0x6f, 0x6e, 0x76, 0x31, 0x64, 0x5f, 0x32,
0x2f, 0x42, 0x69, 0x61, 0x73, 0x41, 0x64, 0x64, 0x3b, 0x73, 0x65, 0x71,
0x75, 0x65, 0x6e, 0x74, 0x69, 0x61, 0x6c, 0x2f, 0x63, 0x6f, 0x6e, 0x76,
0x31, 0x64, 0x5f, 0x32, 0x2f, 0x43, 0x6f, 0x6e, 0x76, 0x31, 0x44, 0x2f,
0x53, 0x71, 0x75, 0x65, 0x65, 0x7a, 0x65, 0x3b, 0x73, 0x65, 0x71, 0x75,
0x65, 0x6e, 0x74, 0x69, 0x61, 0x6c, 0x2f, 0x63, 0x6f, 0x6e, 0x76, 0x31,
0x64, 0x5f, 0x32, 0x2f, 0x42, 0x69, 0x61, 0x73, 0x41, 0x64, 0x64, 0x2f,
0x52, 0x65, 0x61, 0x64, 0x56, 0x61, 0x72, 0x69, 0x61, 0x62, 0x6c, 0x65,
0x4f, 0x70, 0x00, 0x00, 0x03, 0x00, 0x00, 0x00, 0x01, 0x00, 0x00, 0x00,
0x0c, 0x00, 0x00, 0x00, 0x08, 0x00, 0x00, 0x00, 0x36, 0xf0, 0xff, 0xff,
0x00, 0x00, 0x00, 0x01, 0x14, 0x00, 0x00, 0x00, 0x24, 0x00, 0x00, 0x00,
0x24, 0x00, 0x00, 0x00, 0x1f, 0x00, 0x00, 0x00, 0xc0, 0x00, 0x00, 0x00,
0x04, 0x00, 0x00, 0x00, 0xff, 0xff, 0xff, 0xff, 0x01, 0x00, 0x00, 0x00,
0x0c, 0x00, 0x00, 0x00, 0x08, 0x00, 0x00, 0x00, 0x24, 0xf0, 0xff, 0xff,
0x9d, 0x00, 0x00, 0x00, 0x73, 0x65, 0x71, 0x75, 0x65, 0x6e, 0x74, 0x69,
0x61, 0x6c, 0x2f, 0x63, 0x6f, 0x6e, 0x76, 0x31, 0x64, 0x5f, 0x32, 0x2f,
0x52, 0x65, 0x6c, 0x75, 0x3b, 0x73, 0x65, 0x71, 0x75, 0x65, 0x6e, 0x74,
0x69, 0x61, 0x6c, 0x2f, 0x63, 0x6f, 0x6e, 0x76, 0x31, 0x64, 0x5f, 0x32,
0x2f, 0x42, 0x69, 0x61, 0x73, 0x41, 0x64, 0x64, 0x3b, 0x73, 0x65, 0x71,
0x75, 0x65, 0x6e, 0x74, 0x69, 0x61, 0x6c, 0x2f, 0x63, 0x6f, 0x6e, 0x76,
0x31, 0x64, 0x5f, 0x32, 0x2f, 0x43, 0x6f, 0x6e, 0x76, 0x31, 0x44, 0x2f,
0x53, 0x71, 0x75, 0x65, 0x65, 0x7a, 0x65, 0x3b, 0x73, 0x65, 0x71, 0x75,
0x65, 0x6e, 0x74, 0x69, 0x61, 0x6c, 0x2f, 0x63, 0x6f, 0x6e, 0x76, 0x31,
0x64, 0x5f, 0x32, 0x2f, 0x42, 0x69, 0x61, 0x73, 0x41, 0x64, 0x64, 0x2f,
0x52, 0x65, 0x61, 0x64, 0x56, 0x61, 0x72, 0x69, 0x61, 0x62, 0x6c, 0x65,
0x4f, 0x70, 0x3b, 0x73, 0x65, 0x71, 0x75, 0x65, 0x6e, 0x74, 0x69, 0x61,
0x6c, 0x2f, 0x63, 0x6f, 0x6e, 0x76, 0x31, 0x64, 0x5f, 0x32, 0x2f, 0x43,
0x6f, 0x6e, 0x76, 0x31, 0x44, 0x00, 0x00, 0x00, 0x04, 0x00, 0x00, 0x00,
0x01, 0x00, 0x00, 0x00, 0x01, 0x00, 0x00, 0x00, 0x0c, 0x00, 0x00, 0x00,
0x08, 0x00, 0x00, 0x00, 0x22, 0xf1, 0xff, 0xff, 0x00, 0x00, 0x00, 0x01,
0x14, 0x00, 0x00, 0x00, 0x24, 0x00, 0x00, 0x00, 0x24, 0x00, 0x00, 0x00,
0x1e, 0x00, 0x00, 0x00, 0x48, 0x00, 0x00, 0x00, 0x04, 0x00, 0x00, 0x00,
0xff, 0xff, 0xff, 0xff, 0x01, 0x00, 0x00, 0x00, 0x0c, 0x00, 0x00, 0x00,
0x10, 0x00, 0x00, 0x00, 0x10, 0xf1, 0xff, 0xff, 0x25, 0x00, 0x00, 0x00,
0x73, 0x65, 0x71, 0x75, 0x65, 0x6e, 0x74, 0x69, 0x61, 0x6c, 0x2f, 0x63,
0x6f, 0x6e, 0x76, 0x31, 0x64, 0x5f, 0x32, 0x2f, 0x43, 0x6f, 0x6e, 0x76,
0x31, 0x44, 0x2f, 0x45, 0x78, 0x70, 0x61, 0x6e, 0x64, 0x44, 0x69, 0x6d,
0x73, 0x00, 0x00, 0x00, 0x04, 0x00, 0x00, 0x00, 0x01, 0x00, 0x00, 0x00,
0x01, 0x00, 0x00, 0x00, 0x0c, 0x00, 0x00, 0x00, 0x10, 0x00, 0x00, 0x00,
0x96, 0xf1, 0xff, 0xff, 0x00, 0x00, 0x00, 0x01, 0x14, 0x00, 0x00, 0x00,
0x20, 0x00, 0x00, 0x00, 0x20, 0x00, 0x00, 0x00, 0x1d, 0x00, 0x00, 0x00,
0x40, 0x00, 0x00, 0x00, 0x03, 0x00, 0x00, 0x00, 0xff, 0xff, 0xff, 0xff,
0x0c, 0x00, 0x00, 0x00, 0x10, 0x00, 0x00, 0x00, 0x80, 0xf1, 0xff, 0xff,
0x23, 0x00, 0x00, 0x00, 0x73, 0x65, 0x71, 0x75, 0x65, 0x6e, 0x74, 0x69,
0x61, 0x6c, 0x2f, 0x6d, 0x61, 0x78, 0x5f, 0x70, 0x6f, 0x6f, 0x6c, 0x69,
0x6e, 0x67, 0x31, 0x64, 0x5f, 0x31, 0x2f, 0x53, 0x71, 0x75, 0x65, 0x65,
0x7a, 0x65, 0x31, 0x00, 0x03, 0x00, 0x00, 0x00, 0x01, 0x00, 0x00, 0x00,
0x0c, 0x00, 0x00, 0x00, 0x10, 0x00, 0x00, 0x00, 0xfe, 0xf1, 0xff, 0xff,
0x00, 0x00, 0x00, 0x01, 0x14, 0x00, 0x00, 0x00, 0x24, 0x00, 0x00, 0x00,
0x24, 0x00, 0x00, 0x00, 0x1c, 0x00, 0x00, 0x00, 0x44, 0x00, 0x00, 0x00,
0x04, 0x00, 0x00, 0x00, 0xff, 0xff, 0xff, 0xff, 0x0c, 0x00, 0x00, 0x00,
0x01, 0x00, 0x00, 0x00, 0x10, 0x00, 0x00, 0x00, 0xec, 0xf1, 0xff, 0xff,
0x22, 0x00, 0x00, 0x00, 0x73, 0x65, 0x71, 0x75, 0x65, 0x6e, 0x74, 0x69,
0x61, 0x6c, 0x2f, 0x6d, 0x61, 0x78, 0x5f, 0x70, 0x6f, 0x6f, 0x6c, 0x69,
0x6e, 0x67, 0x31, 0x64, 0x5f, 0x31, 0x2f, 0x4d, 0x61, 0x78, 0x50, 0x6f,
0x6f, 0x6c, 0x00, 0x00, 0x04, 0x00, 0x00, 0x00, 0x01, 0x00, 0x00, 0x00,
0x0c, 0x00, 0x00, 0x00, 0x01, 0x00, 0x00, 0x00, 0x10, 0x00, 0x00, 0x00,
0x6e, 0xf2, 0xff, 0xff, 0x00, 0x00, 0x00, 0x01, 0x14, 0x00, 0x00, 0x00,
0x24, 0x00, 0x00, 0x00, 0x24, 0x00, 0x00, 0x00, 0x1b, 0x00, 0x00, 0x00,
0x48, 0x00, 0x00, 0x00, 0x04, 0x00, 0x00, 0x00, 0xff, 0xff, 0xff, 0xff,
0x19, 0x00, 0x00, 0x00, 0x01, 0x00, 0x00, 0x00, 0x10, 0x00, 0x00, 0x00,
0x5c, 0xf2, 0xff, 0xff, 0x25, 0x00, 0x00, 0x00, 0x73, 0x65, 0x71, 0x75,
0x65, 0x6e, 0x74, 0x69, 0x61, 0x6c, 0x2f, 0x6d, 0x61, 0x78, 0x5f, 0x70,
0x6f, 0x6f, 0x6c, 0x69, 0x6e, 0x67, 0x31, 0x64, 0x5f, 0x31, 0x2f, 0x45,
0x78, 0x70, 0x61, 0x6e, 0x64, 0x44, 0x69, 0x6d, 0x73, 0x00, 0x00, 0x00,
0x04, 0x00, 0x00, 0x00, 0x01, 0x00, 0x00, 0x00, 0x19, 0x00, 0x00, 0x00,
0x01, 0x00, 0x00, 0x00, 0x10, 0x00, 0x00, 0x00, 0xe2, 0xf2, 0xff, 0xff,
0x00, 0x00, 0x00, 0x01, 0x14, 0x00, 0x00, 0x00, 0x20, 0x00, 0x00, 0x00,
0x20, 0x00, 0x00, 0x00, 0x1a, 0x00, 0x00, 0x00, 0xa0, 0x00, 0x00, 0x00,
0x03, 0x00, 0x00, 0x00, 0xff, 0xff, 0xff, 0xff, 0x19, 0x00, 0x00, 0x00,
0x10, 0x00, 0x00, 0x00, 0xcc, 0xf2, 0xff, 0xff, 0x82, 0x00, 0x00, 0x00,
0x73, 0x65, 0x71, 0x75, 0x65, 0x6e, 0x74, 0x69, 0x61, 0x6c, 0x2f, 0x63,
0x6f, 0x6e, 0x76, 0x31, 0x64, 0x5f, 0x31, 0x2f, 0x52, 0x65, 0x6c, 0x75,
0x3b, 0x73, 0x65, 0x71, 0x75, 0x65, 0x6e, 0x74, 0x69, 0x61, 0x6c, 0x2f,
0x63, 0x6f, 0x6e, 0x76, 0x31, 0x64, 0x5f, 0x31, 0x2f, 0x42, 0x69, 0x61,
0x73, 0x41, 0x64, 0x64, 0x3b, 0x73, 0x65, 0x71, 0x75, 0x65, 0x6e, 0x74,
0x69, 0x61, 0x6c, 0x2f, 0x63, 0x6f, 0x6e, 0x76, 0x31, 0x64, 0x5f, 0x31,
0x2f, 0x43, 0x6f, 0x6e, 0x76, 0x31, 0x44, 0x2f, 0x53, 0x71, 0x75, 0x65,
0x65, 0x7a, 0x65, 0x3b, 0x73, 0x65, 0x71, 0x75, 0x65, 0x6e, 0x74, 0x69,
0x61, 0x6c, 0x2f, 0x63, 0x6f, 0x6e, 0x76, 0x31, 0x64, 0x5f, 0x31, 0x2f,
0x42, 0x69, 0x61, 0x73, 0x41, 0x64, 0x64, 0x2f, 0x52, 0x65, 0x61, 0x64,
0x56, 0x61, 0x72, 0x69, 0x61, 0x62, 0x6c, 0x65, 0x4f, 0x70, 0x00, 0x00,
0x03, 0x00, 0x00, 0x00, 0x01, 0x00, 0x00, 0x00, 0x19, 0x00, 0x00, 0x00,
0x10, 0x00, 0x00, 0x00, 0xaa, 0xf3, 0xff, 0xff, 0x00, 0x00, 0x00, 0x01,
0x14, 0x00, 0x00, 0x00, 0x24, 0x00, 0x00, 0x00, 0x24, 0x00, 0x00, 0x00,
0x19, 0x00, 0x00, 0x00, 0xc0, 0x00, 0x00, 0x00, 0x04, 0x00, 0x00, 0x00,
0xff, 0xff, 0xff, 0xff, 0x01, 0x00, 0x00, 0x00, 0x19, 0x00, 0x00, 0x00,
0x10, 0x00, 0x00, 0x00, 0x98, 0xf3, 0xff, 0xff, 0x9d, 0x00, 0x00, 0x00,
0x73, 0x65, 0x71, 0x75, 0x65, 0x6e, 0x74, 0x69, 0x61, 0x6c, 0x2f, 0x63,
0x6f, 0x6e, 0x76, 0x31, 0x64, 0x5f, 0x31, 0x2f, 0x52, 0x65, 0x6c, 0x75,
0x3b, 0x73, 0x65, 0x71, 0x75, 0x65, 0x6e, 0x74, 0x69, 0x61, 0x6c, 0x2f,
0x63, 0x6f, 0x6e, 0x76, 0x31, 0x64, 0x5f, 0x31, 0x2f, 0x42, 0x69, 0x61,
0x73, 0x41, 0x64, 0x64, 0x3b, 0x73, 0x65, 0x71, 0x75, 0x65, 0x6e, 0x74,
0x69, 0x61, 0x6c, 0x2f, 0x63, 0x6f, 0x6e, 0x76, 0x31, 0x64, 0x5f, 0x31,
0x2f, 0x43, 0x6f, 0x6e, 0x76, 0x31, 0x44, 0x2f, 0x53, 0x71, 0x75, 0x65,
0x65, 0x7a, 0x65, 0x3b, 0x73, 0x65, 0x71, 0x75, 0x65, 0x6e, 0x74, 0x69,
0x61, 0x6c, 0x2f, 0x63, 0x6f, 0x6e, 0x76, 0x31, 0x64, 0x5f, 0x31, 0x2f,
0x42, 0x69, 0x61, 0x73, 0x41, 0x64, 0x64, 0x2f, 0x52, 0x65, 0x61, 0x64,
0x56, 0x61, 0x72, 0x69, 0x61, 0x62, 0x6c, 0x65, 0x4f, 0x70, 0x3b, 0x73,
0x65, 0x71, 0x75, 0x65, 0x6e, 0x74, 0x69, 0x61, 0x6c, 0x2f, 0x63, 0x6f,
0x6e, 0x76, 0x31, 0x64, 0x5f, 0x31, 0x2f, 0x43, 0x6f, 0x6e, 0x76, 0x31,
0x44, 0x00, 0x00, 0x00, 0x04, 0x00, 0x00, 0x00, 0x01, 0x00, 0x00, 0x00,
0x01, 0x00, 0x00, 0x00, 0x19, 0x00, 0x00, 0x00, 0x10, 0x00, 0x00, 0x00,
0x96, 0xf4, 0xff, 0xff, 0x00, 0x00, 0x00, 0x01, 0x14, 0x00, 0x00, 0x00,
0x24, 0x00, 0x00, 0x00, 0x24, 0x00, 0x00, 0x00, 0x18, 0x00, 0x00, 0x00,
0x48, 0x00, 0x00, 0x00, 0x04, 0x00, 0x00, 0x00, 0xff, 0xff, 0xff, 0xff,
0x01, 0x00, 0x00, 0x00, 0x19, 0x00, 0x00, 0x00, 0x20, 0x00, 0x00, 0x00,
0x84, 0xf4, 0xff, 0xff, 0x25, 0x00, 0x00, 0x00, 0x73, 0x65, 0x71, 0x75,
0x65, 0x6e, 0x74, 0x69, 0x61, 0x6c, 0x2f, 0x63, 0x6f, 0x6e, 0x76, 0x31,
0x64, 0x5f, 0x31, 0x2f, 0x43, 0x6f, 0x6e, 0x76, 0x31, 0x44, 0x2f, 0x45,
0x78, 0x70, 0x61, 0x6e, 0x64, 0x44, 0x69, 0x6d, 0x73, 0x00, 0x00, 0x00,
0x04, 0x00, 0x00, 0x00, 0x01, 0x00, 0x00, 0x00, 0x01, 0x00, 0x00, 0x00,
0x19, 0x00, 0x00, 0x00, 0x20, 0x00, 0x00, 0x00, 0x0a, 0xf5, 0xff, 0xff,
0x00, 0x00, 0x00, 0x01, 0x14, 0x00, 0x00, 0x00, 0x20, 0x00, 0x00, 0x00,
0x20, 0x00, 0x00, 0x00, 0x17, 0x00, 0x00, 0x00, 0x40, 0x00, 0x00, 0x00,
0x03, 0x00, 0x00, 0x00, 0xff, 0xff, 0xff, 0xff, 0x19, 0x00, 0x00, 0x00,
0x20, 0x00, 0x00, 0x00, 0xf4, 0xf4, 0xff, 0xff, 0x21, 0x00, 0x00, 0x00,
0x73, 0x65, 0x71, 0x75, 0x65, 0x6e, 0x74, 0x69, 0x61, 0x6c, 0x2f, 0x6d,
0x61, 0x78, 0x5f, 0x70, 0x6f, 0x6f, 0x6c, 0x69, 0x6e, 0x67, 0x31, 0x64,
0x2f, 0x53, 0x71, 0x75, 0x65, 0x65, 0x7a, 0x65, 0x31, 0x00, 0x00, 0x00,
0x03, 0x00, 0x00, 0x00, 0x01, 0x00, 0x00, 0x00, 0x19, 0x00, 0x00, 0x00,
0x20, 0x00, 0x00, 0x00, 0x72, 0xf5, 0xff, 0xff, 0x00, 0x00, 0x00, 0x01,
0x14, 0x00, 0x00, 0x00, 0x24, 0x00, 0x00, 0x00, 0x24, 0x00, 0x00, 0x00,
0x16, 0x00, 0x00, 0x00, 0x44, 0x00, 0x00, 0x00, 0x04, 0x00, 0x00, 0x00,
0xff, 0xff, 0xff, 0xff, 0x19, 0x00, 0x00, 0x00, 0x01, 0x00, 0x00, 0x00,
0x20, 0x00, 0x00, 0x00, 0x60, 0xf5, 0xff, 0xff, 0x20, 0x00, 0x00, 0x00,
0x73, 0x65, 0x71, 0x75, 0x65, 0x6e, 0x74, 0x69, 0x61, 0x6c, 0x2f, 0x6d,
0x61, 0x78, 0x5f, 0x70, 0x6f, 0x6f, 0x6c, 0x69, 0x6e, 0x67, 0x31, 0x64,
0x2f, 0x4d, 0x61, 0x78, 0x50, 0x6f, 0x6f, 0x6c, 0x00, 0x00, 0x00, 0x00,
0x04, 0x00, 0x00, 0x00, 0x01, 0x00, 0x00, 0x00, 0x19, 0x00, 0x00, 0x00,
0x01, 0x00, 0x00, 0x00, 0x20, 0x00, 0x00, 0x00, 0xe2, 0xf5, 0xff, 0xff,
0x00, 0x00, 0x00, 0x01, 0x14, 0x00, 0x00, 0x00, 0x24, 0x00, 0x00, 0x00,
0x24, 0x00, 0x00, 0x00, 0x15, 0x00, 0x00, 0x00, 0x44, 0x00, 0x00, 0x00,
0x04, 0x00, 0x00, 0x00, 0xff, 0xff, 0xff, 0xff, 0x33, 0x00, 0x00, 0x00,
0x01, 0x00, 0x00, 0x00, 0x20, 0x00, 0x00, 0x00, 0xd0, 0xf5, 0xff, 0xff,
0x23, 0x00, 0x00, 0x00, 0x73, 0x65, 0x71, 0x75, 0x65, 0x6e, 0x74, 0x69,
0x61, 0x6c, 0x2f, 0x6d, 0x61, 0x78, 0x5f, 0x70, 0x6f, 0x6f, 0x6c, 0x69,
0x6e, 0x67, 0x31, 0x64, 0x2f, 0x45, 0x78, 0x70, 0x61, 0x6e, 0x64, 0x44,
0x69, 0x6d, 0x73, 0x00, 0x04, 0x00, 0x00, 0x00, 0x01, 0x00, 0x00, 0x00,
0x33, 0x00, 0x00, 0x00, 0x01, 0x00, 0x00, 0x00, 0x20, 0x00, 0x00, 0x00,
0x52, 0xf6, 0xff, 0xff, 0x00, 0x00, 0x00, 0x01, 0x14, 0x00, 0x00, 0x00,
0x20, 0x00, 0x00, 0x00, 0x20, 0x00, 0x00, 0x00, 0x14, 0x00, 0x00, 0x00,
0x98, 0x00, 0x00, 0x00, 0x03, 0x00, 0x00, 0x00, 0xff, 0xff, 0xff, 0xff,
0x33, 0x00, 0x00, 0x00, 0x20, 0x00, 0x00, 0x00, 0x3c, 0xf6, 0xff, 0xff,
0x7a, 0x00, 0x00, 0x00, 0x73, 0x65, 0x71, 0x75, 0x65, 0x6e, 0x74, 0x69,
0x61, 0x6c, 0x2f, 0x63, 0x6f, 0x6e, 0x76, 0x31, 0x64, 0x2f, 0x52, 0x65,
0x6c, 0x75, 0x3b, 0x73, 0x65, 0x71, 0x75, 0x65, 0x6e, 0x74, 0x69, 0x61,
0x6c, 0x2f, 0x63, 0x6f, 0x6e, 0x76, 0x31, 0x64, 0x2f, 0x42, 0x69, 0x61,
0x73, 0x41, 0x64, 0x64, 0x3b, 0x73, 0x65, 0x71, 0x75, 0x65, 0x6e, 0x74,
0x69, 0x61, 0x6c, 0x2f, 0x63, 0x6f, 0x6e, 0x76, 0x31, 0x64, 0x2f, 0x43,
0x6f, 0x6e, 0x76, 0x31, 0x44, 0x2f, 0x53, 0x71, 0x75, 0x65, 0x65, 0x7a,
0x65, 0x3b, 0x73, 0x65, 0x71, 0x75, 0x65, 0x6e, 0x74, 0x69, 0x61, 0x6c,
0x2f, 0x63, 0x6f, 0x6e, 0x76, 0x31, 0x64, 0x2f, 0x42, 0x69, 0x61, 0x73,
0x41, 0x64, 0x64, 0x2f, 0x52, 0x65, 0x61, 0x64, 0x56, 0x61, 0x72, 0x69,
0x61, 0x62, 0x6c, 0x65, 0x4f, 0x70, 0x00, 0x00, 0x03, 0x00, 0x00, 0x00,
0x01, 0x00, 0x00, 0x00, 0x33, 0x00, 0x00, 0x00, 0x20, 0x00, 0x00, 0x00,
0x12, 0xf7, 0xff, 0xff, 0x00, 0x00, 0x00, 0x01, 0x14, 0x00, 0x00, 0x00,
0x24, 0x00, 0x00, 0x00, 0x24, 0x00, 0x00, 0x00, 0x13, 0x00, 0x00, 0x00,
0xb4, 0x00, 0x00, 0x00, 0x04, 0x00, 0x00, 0x00, 0xff, 0xff, 0xff, 0xff,
0x01, 0x00, 0x00, 0x00, 0x33, 0x00, 0x00, 0x00, 0x20, 0x00, 0x00, 0x00,
0x00, 0xf7, 0xff, 0xff, 0x93, 0x00, 0x00, 0x00, 0x73, 0x65, 0x71, 0x75,
0x65, 0x6e, 0x74, 0x69, 0x61, 0x6c, 0x2f, 0x63, 0x6f, 0x6e, 0x76, 0x31,
0x64, 0x2f, 0x52, 0x65, 0x6c, 0x75, 0x3b, 0x73, 0x65, 0x71, 0x75, 0x65,
0x6e, 0x74, 0x69, 0x61, 0x6c, 0x2f, 0x63, 0x6f, 0x6e, 0x76, 0x31, 0x64,
0x2f, 0x42, 0x69, 0x61, 0x73, 0x41, 0x64, 0x64, 0x3b, 0x73, 0x65, 0x71,
0x75, 0x65, 0x6e, 0x74, 0x69, 0x61, 0x6c, 0x2f, 0x63, 0x6f, 0x6e, 0x76,
0x31, 0x64, 0x2f, 0x43, 0x6f, 0x6e, 0x76, 0x31, 0x44, 0x2f, 0x53, 0x71,
0x75, 0x65, 0x65, 0x7a, 0x65, 0x3b, 0x73, 0x65, 0x71, 0x75, 0x65, 0x6e,
0x74, 0x69, 0x61, 0x6c, 0x2f, 0x63, 0x6f, 0x6e, 0x76, 0x31, 0x64, 0x2f,
0x42, 0x69, 0x61, 0x73, 0x41, 0x64, 0x64, 0x2f, 0x52, 0x65, 0x61, 0x64,
0x56, 0x61, 0x72, 0x69, 0x61, 0x62, 0x6c, 0x65, 0x4f, 0x70, 0x3b, 0x73,
0x65, 0x71, 0x75, 0x65, 0x6e, 0x74, 0x69, 0x61, 0x6c, 0x2f, 0x63, 0x6f,
0x6e, 0x76, 0x31, 0x64, 0x2f, 0x43, 0x6f, 0x6e, 0x76, 0x31, 0x44, 0x00,
0x04, 0x00, 0x00, 0x00, 0x01, 0x00, 0x00, 0x00, 0x01, 0x00, 0x00, 0x00,
0x33, 0x00, 0x00, 0x00, 0x20, 0x00, 0x00, 0x00, 0xf2, 0xf7, 0xff, 0xff,
0x00, 0x00, 0x00, 0x01, 0x14, 0x00, 0x00, 0x00, 0x24, 0x00, 0x00, 0x00,
0x24, 0x00, 0x00, 0x00, 0x12, 0x00, 0x00, 0x00, 0x44, 0x00, 0x00, 0x00,
0x04, 0x00, 0x00, 0x00, 0xff, 0xff, 0xff, 0xff, 0x01, 0x00, 0x00, 0x00,
0x33, 0x00, 0x00, 0x00, 0x0d, 0x00, 0x00, 0x00, 0xe0, 0xf7, 0xff, 0xff,
0x23, 0x00, 0x00, 0x00, 0x73, 0x65, 0x71, 0x75, 0x65, 0x6e, 0x74, 0x69,
0x61, 0x6c, 0x2f, 0x63, 0x6f, 0x6e, 0x76, 0x31, 0x64, 0x2f, 0x43, 0x6f,
0x6e, 0x76, 0x31, 0x44, 0x2f, 0x45, 0x78, 0x70, 0x61, 0x6e, 0x64, 0x44,
0x69, 0x6d, 0x73, 0x00, 0x04, 0x00, 0x00, 0x00, 0x01, 0x00, 0x00, 0x00,
0x01, 0x00, 0x00, 0x00, 0x33, 0x00, 0x00, 0x00, 0x0d, 0x00, 0x00, 0x00,
0x26, 0xf9, 0xff, 0xff, 0x00, 0x00, 0x00, 0x01, 0x14, 0x00, 0x00, 0x00,
0xe4, 0x00, 0x00, 0x00, 0x11, 0x00, 0x00, 0x00, 0x00, 0x00, 0x00, 0x09,
0xf8, 0x00, 0x00, 0x00, 0xdc, 0xfe, 0xff, 0xff, 0x08, 0x00, 0x00, 0x00,
0x88, 0x00, 0x00, 0x00, 0x10, 0x00, 0x00, 0x00, 0x00, 0x00, 0x00, 0x00,
0x00, 0x00, 0x00, 0x00, 0x00, 0x00, 0x00, 0x00, 0x00, 0x00, 0x00, 0x00,
0x00, 0x00, 0x00, 0x00, 0x00, 0x00, 0x00, 0x00, 0x00, 0x00, 0x00, 0x00,
0x00, 0x00, 0x00, 0x00, 0x00, 0x00, 0x00, 0x00, 0x00, 0x00, 0x00, 0x00,
0x00, 0x00, 0x00, 0x00, 0x00, 0x00, 0x00, 0x00, 0x00, 0x00, 0x00, 0x00,
0x00, 0x00, 0x00, 0x00, 0x00, 0x00, 0x00, 0x00, 0x00, 0x00, 0x00, 0x00,
0x00, 0x00, 0x00, 0x00, 0x00, 0x00, 0x00, 0x00, 0x00, 0x00, 0x00, 0x00,
0x00, 0x00, 0x00, 0x00, 0x00, 0x00, 0x00, 0x00, 0x00, 0x00, 0x00, 0x00,
0x00, 0x00, 0x00, 0x00, 0x00, 0x00, 0x00, 0x00, 0x00, 0x00, 0x00, 0x00,
0x00, 0x00, 0x00, 0x00, 0x00, 0x00, 0x00, 0x00, 0x00, 0x00, 0x00, 0x00,
0x00, 0x00, 0x00, 0x00, 0x00, 0x00, 0x00, 0x00, 0x00, 0x00, 0x00, 0x00,
0x00, 0x00, 0x00, 0x00, 0x10, 0x00, 0x00, 0x00, 0x12, 0x05, 0x55, 0x3b,
0x8b, 0x2f, 0xcc, 0x3b, 0xcb, 0xf9, 0x72, 0x3b, 0x63, 0xbf, 0x89, 0x3b,
0x47, 0x0a, 0xba, 0x3b, 0x4c, 0x35, 0x78, 0x3b, 0x5e, 0xfe, 0x9f, 0x3b,
0xd7, 0x6e, 0x4c, 0x3b, 0x16, 0x5a, 0x8c, 0x3b, 0x1c, 0x3d, 0x3f, 0x3b,
0x76, 0x8c, 0x6c, 0x3b, 0x10, 0x72, 0x23, 0x3b, 0xba, 0xc4, 0x80, 0x3b,
0x00, 0xa5, 0xb5, 0x3b, 0x16, 0x42, 0x8d, 0x3b, 0x5d, 0xe3, 0xa1, 0x3b,
0x1a, 0x00, 0x00, 0x00, 0x73, 0x65, 0x71, 0x75, 0x65, 0x6e, 0x74, 0x69,
0x61, 0x6c, 0x2f, 0x63, 0x6f, 0x6e, 0x76, 0x31, 0x64, 0x5f, 0x31, 0x2f,
0x43, 0x6f, 0x6e, 0x76, 0x31, 0x44, 0x00, 0x00, 0x04, 0x00, 0x00, 0x00,
0x10, 0x00, 0x00, 0x00, 0x01, 0x00, 0x00, 0x00, 0x03, 0x00, 0x00, 0x00,
0x20, 0x00, 0x00, 0x00, 0x4a, 0xfa, 0xff, 0xff, 0x00, 0x00, 0x00, 0x01,
0x20, 0x00, 0x00, 0x00, 0xb0, 0x01, 0x00, 0x00, 0x10, 0x00, 0x00, 0x00,
0x00, 0x00, 0x00, 0x09, 0xc4, 0x01, 0x00, 0x00, 0x0c, 0x00, 0x0c, 0x00,
0x00, 0x00, 0x00, 0x00, 0x08, 0x00, 0x04, 0x00, 0x0c, 0x00, 0x00, 0x00,
0x08, 0x00, 0x00, 0x00, 0x08, 0x01, 0x00, 0x00, 0x20, 0x00, 0x00, 0x00,
0x00, 0x00, 0x00, 0x00, 0x00, 0x00, 0x00, 0x00, 0x00, 0x00, 0x00, 0x00,
0x00, 0x00, 0x00, 0x00, 0x00, 0x00, 0x00, 0x00, 0x00, 0x00, 0x00, 0x00,
0x00, 0x00, 0x00, 0x00, 0x00, 0x00, 0x00, 0x00, 0x00, 0x00, 0x00, 0x00,
0x00, 0x00, 0x00, 0x00, 0x00, 0x00, 0x00, 0x00, 0x00, 0x00, 0x00, 0x00,
0x00, 0x00, 0x00, 0x00, 0x00, 0x00, 0x00, 0x00, 0x00, 0x00, 0x00, 0x00,
0x00, 0x00, 0x00, 0x00, 0x00, 0x00, 0x00, 0x00, 0x00, 0x00, 0x00, 0x00,
0x00, 0x00, 0x00, 0x00, 0x00, 0x00, 0x00, 0x00, 0x00, 0x00, 0x00, 0x00,
0x00, 0x00, 0x00, 0x00, 0x00, 0x00, 0x00, 0x00, 0x00, 0x00, 0x00, 0x00,
0x00, 0x00, 0x00, 0x00, 0x00, 0x00, 0x00, 0x00, 0x00, 0x00, 0x00, 0x00,
0x00, 0x00, 0x00, 0x00, 0x00, 0x00, 0x00, 0x00, 0x00, 0x00, 0x00, 0x00,
0x00, 0x00, 0x00, 0x00, 0x00, 0x00, 0x00, 0x00, 0x00, 0x00, 0x00, 0x00,
0x00, 0x00, 0x00, 0x00, 0x00, 0x00, 0x00, 0x00, 0x00, 0x00, 0x00, 0x00,
0x00, 0x00, 0x00, 0x00, 0x00, 0x00, 0x00, 0x00, 0x00, 0x00, 0x00, 0x00,
0x00, 0x00, 0x00, 0x00, 0x00, 0x00, 0x00, 0x00, 0x00, 0x00, 0x00, 0x00,
0x00, 0x00, 0x00, 0x00, 0x00, 0x00, 0x00, 0x00, 0x00, 0x00, 0x00, 0x00,
0x00, 0x00, 0x00, 0x00, 0x00, 0x00, 0x00, 0x00, 0x00, 0x00, 0x00, 0x00,
0x00, 0x00, 0x00, 0x00, 0x00, 0x00, 0x00, 0x00, 0x00, 0x00, 0x00, 0x00,
0x00, 0x00, 0x00, 0x00, 0x00, 0x00, 0x00, 0x00, 0x00, 0x00, 0x00, 0x00,
0x00, 0x00, 0x00, 0x00, 0x00, 0x00, 0x00, 0x00, 0x00, 0x00, 0x00, 0x00,
0x00, 0x00, 0x00, 0x00, 0x00, 0x00, 0x00, 0x00, 0x00, 0x00, 0x00, 0x00,
0x00, 0x00, 0x00, 0x00, 0x00, 0x00, 0x00, 0x00, 0x00, 0x00, 0x00, 0x00,
0x00, 0x00, 0x00, 0x00, 0x20, 0x00, 0x00, 0x00, 0xa1, 0x72, 0x97, 0x3b,
0x1f, 0x2d, 0x4d, 0x3b, 0xa2, 0xb5, 0x5a, 0x3b, 0x35, 0xb8, 0x90, 0x3b,
0x12, 0x70, 0x91, 0x3b, 0xd9, 0x28, 0xa6, 0x3b, 0xa0, 0x2a, 0x3e, 0x3b,
0x33, 0x91, 0x80, 0x3b, 0x4e, 0x47, 0xb5, 0x3b, 0xde, 0x17, 0x99, 0x3b,
0x81, 0x3a, 0x65, 0x3b, 0x0a, 0xff, 0xaa, 0x3b, 0xcf, 0x3f, 0xa9, 0x3b,
0x4e, 0xdb, 0x6e, 0x3b, 0x3a, 0x7e, 0x08, 0x3c, 0x4b, 0xc5, 0xa9, 0x3b,
0x06, 0xa9, 0x7f, 0x3b, 0x9b, 0xd6, 0x87, 0x3b, 0x73, 0x31, 0x55, 0x3b,
0x34, 0xd1, 0x86, 0x3b, 0x0f, 0xe7, 0x51, 0x3b, 0x14, 0x7f, 0x8e, 0x3b,
0x2c, 0x01, 0x98, 0x3b, 0xa6, 0x4f, 0x6c, 0x3b, 0x14, 0xc4, 0x50, 0x3b,
0xd8, 0xe6, 0x77, 0x3b, 0x5d, 0xc3, 0x8c, 0x3b, 0xeb, 0xa0, 0x73, 0x3b,
0xf2, 0xd0, 0x3a, 0x3b, 0x67, 0xde, 0x72, 0x3b, 0xa4, 0xf5, 0x3f, 0x3b,
0xfa, 0xd8, 0x8f, 0x3b, 0x18, 0x00, 0x00, 0x00, 0x73, 0x65, 0x71, 0x75,
0x65, 0x6e, 0x74, 0x69, 0x61, 0x6c, 0x2f, 0x63, 0x6f, 0x6e, 0x76, 0x31,
0x64, 0x2f, 0x43, 0x6f, 0x6e, 0x76, 0x31, 0x44, 0x00, 0x00, 0x00, 0x00,
0x04, 0x00, 0x00, 0x00, 0x20, 0x00, 0x00, 0x00, 0x01, 0x00, 0x00, 0x00,
0x03, 0x00, 0x00, 0x00, 0x0d, 0x00, 0x00, 0x00, 0x3a, 0xfc, 0xff, 0xff,
0x00, 0x00, 0x00, 0x01, 0x14, 0x00, 0x00, 0x00, 0x14, 0x00, 0x00, 0x00,
0x0f, 0x00, 0x00, 0x00, 0x00, 0x00, 0x00, 0x02, 0x30, 0x00, 0x00, 0x00,
0x50, 0xfb, 0xff, 0xff, 0x22, 0x00, 0x00, 0x00, 0x73, 0x65, 0x71, 0x75,
0x65, 0x6e, 0x74, 0x69, 0x61, 0x6c, 0x2f, 0x63, 0x6f, 0x6e, 0x76, 0x31,
0x64, 0x5f, 0x32, 0x2f, 0x43, 0x6f, 0x6e, 0x76, 0x31, 0x44, 0x2f, 0x53,
0x71, 0x75, 0x65, 0x65, 0x7a, 0x65, 0x00, 0x00, 0x01, 0x00, 0x00, 0x00,
0x03, 0x00, 0x00, 0x00, 0x8a, 0xfc, 0xff, 0xff, 0x00, 0x00, 0x00, 0x01,
0x14, 0x00, 0x00, 0x00, 0x14, 0x00, 0x00, 0x00, 0x0e, 0x00, 0x00, 0x00,
0x00, 0x00, 0x00, 0x02, 0x30, 0x00, 0x00, 0x00, 0xa0, 0xfb, 0xff, 0xff,
0x22, 0x00, 0x00, 0x00, 0x73, 0x65, 0x71, 0x75, 0x65, 0x6e, 0x74, 0x69,
0x61, 0x6c, 0x2f, 0x6d, 0x61, 0x78, 0x5f, 0x70, 0x6f, 0x6f, 0x6c, 0x69,
0x6e, 0x67, 0x31, 0x64, 0x5f, 0x31, 0x2f, 0x53, 0x71, 0x75, 0x65, 0x65,
0x7a, 0x65, 0x00, 0x00, 0x01, 0x00, 0x00, 0x00, 0x03, 0x00, 0x00, 0x00,
0xda, 0xfc, 0xff, 0xff, 0x00, 0x00, 0x00, 0x01, 0x14, 0x00, 0x00, 0x00,
0x14, 0x00, 0x00, 0x00, 0x0d, 0x00, 0x00, 0x00, 0x00, 0x00, 0x00, 0x02,
0x30, 0x00, 0x00, 0x00, 0xf0, 0xfb, 0xff, 0xff, 0x22, 0x00, 0x00, 0x00,
0x73, 0x65, 0x71, 0x75, 0x65, 0x6e, 0x74, 0x69, 0x61, 0x6c, 0x2f, 0x63,
0x6f, 0x6e, 0x76, 0x31, 0x64, 0x5f, 0x31, 0x2f, 0x43, 0x6f, 0x6e, 0x76,
0x31, 0x44, 0x2f, 0x53, 0x71, 0x75, 0x65, 0x65, 0x7a, 0x65, 0x00, 0x00,
0x01, 0x00, 0x00, 0x00, 0x03, 0x00, 0x00, 0x00, 0x2a, 0xfd, 0xff, 0xff,
0x00, 0x00, 0x00, 0x01, 0x14, 0x00, 0x00, 0x00, 0x14, 0x00, 0x00, 0x00,
0x0c, 0x00, 0x00, 0x00, 0x00, 0x00, 0x00, 0x02, 0x30, 0x00, 0x00, 0x00,
0x40, 0xfc, 0xff, 0xff, 0x20, 0x00, 0x00, 0x00, 0x73, 0x65, 0x71, 0x75,
0x65, 0x6e, 0x74, 0x69, 0x61, 0x6c, 0x2f, 0x6d, 0x61, 0x78, 0x5f, 0x70,
0x6f, 0x6f, 0x6c, 0x69, 0x6e, 0x67, 0x31, 0x64, 0x2f, 0x53, 0x71, 0x75,
0x65, 0x65, 0x7a, 0x65, 0x00, 0x00, 0x00, 0x00, 0x01, 0x00, 0x00, 0x00,
0x03, 0x00, 0x00, 0x00, 0x7a, 0xfd, 0xff, 0xff, 0x00, 0x00, 0x00, 0x01,
0x14, 0x00, 0x00, 0x00, 0x14, 0x00, 0x00, 0x00, 0x0b, 0x00, 0x00, 0x00,
0x00, 0x00, 0x00, 0x02, 0x30, 0x00, 0x00, 0x00, 0x90, 0xfc, 0xff, 0xff,
0x20, 0x00, 0x00, 0x00, 0x73, 0x65, 0x71, 0x75, 0x65, 0x6e, 0x74, 0x69,
0x61, 0x6c, 0x2f, 0x63, 0x6f, 0x6e, 0x76, 0x31, 0x64, 0x2f, 0x43, 0x6f,
0x6e, 0x76, 0x31, 0x44, 0x2f, 0x53, 0x71, 0x75, 0x65, 0x65, 0x7a, 0x65,
0x00, 0x00, 0x00, 0x00, 0x01, 0x00, 0x00, 0x00, 0x03, 0x00, 0x00, 0x00,
0x62, 0xfd, 0xff, 0xff, 0x00, 0x00, 0x00, 0x01, 0x10, 0x00, 0x00, 0x00,
0x10, 0x00, 0x00, 0x00, 0x0a, 0x00, 0x00, 0x00, 0x38, 0x00, 0x00, 0x00,
0xdc, 0xfc, 0xff, 0xff, 0x2a, 0x00, 0x00, 0x00, 0x73, 0x65, 0x71, 0x75,
0x65, 0x6e, 0x74, 0x69, 0x61, 0x6c, 0x2f, 0x63, 0x6f, 0x6e, 0x76, 0x31,
0x64, 0x5f, 0x32, 0x2f, 0x42, 0x69, 0x61, 0x73, 0x41, 0x64, 0x64, 0x2f,
0x52, 0x65, 0x61, 0x64, 0x56, 0x61, 0x72, 0x69, 0x61, 0x62, 0x6c, 0x65,
0x4f, 0x70, 0x00, 0x00, 0x01, 0x00, 0x00, 0x00, 0x08, 0x00, 0x00, 0x00,
0xb6, 0xfd, 0xff, 0xff, 0x00, 0x00, 0x00, 0x01, 0x10, 0x00, 0x00, 0x00,
0x10, 0x00, 0x00, 0x00, 0x09, 0x00, 0x00, 0x00, 0x38, 0x00, 0x00, 0x00,
0x30, 0xfd, 0xff, 0xff, 0x2a, 0x00, 0x00, 0x00, 0x73, 0x65, 0x71, 0x75,
0x65, 0x6e, 0x74, 0x69, 0x61, 0x6c, 0x2f, 0x63, 0x6f, 0x6e, 0x76, 0x31,
0x64, 0x5f, 0x31, 0x2f, 0x42, 0x69, 0x61, 0x73, 0x41, 0x64, 0x64, 0x2f,
0x52, 0x65, 0x61, 0x64, 0x56, 0x61, 0x72, 0x69, 0x61, 0x62, 0x6c, 0x65,
0x4f, 0x70, 0x00, 0x00, 0x01, 0x00, 0x00, 0x00, 0x10, 0x00, 0x00, 0x00,
0x0a, 0xfe, 0xff, 0xff, 0x00, 0x00, 0x00, 0x01, 0x10, 0x00, 0x00, 0x00,
0x10, 0x00, 0x00, 0x00, 0x08, 0x00, 0x00, 0x00, 0x38, 0x00, 0x00, 0x00,
0x84, 0xfd, 0xff, 0xff, 0x28, 0x00, 0x00, 0x00, 0x73, 0x65, 0x71, 0x75,
0x65, 0x6e, 0x74, 0x69, 0x61, 0x6c, 0x2f, 0x63, 0x6f, 0x6e, 0x76, 0x31,
0x64, 0x2f, 0x42, 0x69, 0x61, 0x73, 0x41, 0x64, 0x64, 0x2f, 0x52, 0x65,
0x61, 0x64, 0x56, 0x61, 0x72, 0x69, 0x61, 0x62, 0x6c, 0x65, 0x4f, 0x70,
0x00, 0x00, 0x00, 0x00, 0x01, 0x00, 0x00, 0x00, 0x20, 0x00, 0x00, 0x00,
0x5e, 0xfe, 0xff, 0xff, 0x00, 0x00, 0x00, 0x01, 0x10, 0x00, 0x00, 0x00,
0x10, 0x00, 0x00, 0x00, 0x07, 0x00, 0x00, 0x00, 0x28, 0x00, 0x00, 0x00,
0xd8, 0xfd, 0xff, 0xff, 0x1a, 0x00, 0x00, 0x00, 0x73, 0x65, 0x71, 0x75,
0x65, 0x6e, 0x74, 0x69, 0x61, 0x6c, 0x2f, 0x63, 0x6f, 0x6e, 0x76, 0x31,
0x64, 0x5f, 0x32, 0x2f, 0x43, 0x6f, 0x6e, 0x76, 0x31, 0x44, 0x00, 0x00,
0x04, 0x00, 0x00, 0x00, 0x08, 0x00, 0x00, 0x00, 0x01, 0x00, 0x00, 0x00,
0x03, 0x00, 0x00, 0x00, 0x10, 0x00, 0x00, 0x00, 0xae, 0xfe, 0xff, 0xff,
0x00, 0x00, 0x00, 0x01, 0x10, 0x00, 0x00, 0x00, 0x10, 0x00, 0x00, 0x00,
0x06, 0x00, 0x00, 0x00, 0x34, 0x00, 0x00, 0x00, 0x28, 0xfe, 0xff, 0xff,
0x27, 0x00, 0x00, 0x00, 0x73, 0x65, 0x71, 0x75, 0x65, 0x6e, 0x74, 0x69,
0x61, 0x6c, 0x2f, 0x64, 0x65, 0x6e, 0x73, 0x65, 0x2f, 0x42, 0x69, 0x61,
0x73, 0x41, 0x64, 0x64, 0x2f, 0x52, 0x65, 0x61, 0x64, 0x56, 0x61, 0x72,
0x69, 0x61, 0x62, 0x6c, 0x65, 0x4f, 0x70, 0x00, 0x01, 0x00, 0x00, 0x00,
0x04, 0x00, 0x00, 0x00, 0x66, 0xff, 0xff, 0xff, 0x00, 0x00, 0x00, 0x01,
0x14, 0x00, 0x00, 0x00, 0x14, 0x00, 0x00, 0x00, 0x05, 0x00, 0x00, 0x00,
0x00, 0x00, 0x00, 0x02, 0x34, 0x00, 0x00, 0x00, 0x7c, 0xfe, 0xff, 0xff,
0x27, 0x00, 0x00, 0x00, 0x73, 0x65, 0x71, 0x75, 0x65, 0x6e, 0x74, 0x69,
0x61, 0x6c, 0x2f, 0x6d, 0x61, 0x78, 0x5f, 0x70, 0x6f, 0x6f, 0x6c, 0x69,
0x6e, 0x67, 0x31, 0x64, 0x2f, 0x45, 0x78, 0x70, 0x61, 0x6e, 0x64, 0x44,
0x69, 0x6d, 0x73, 0x2f, 0x64, 0x69, 0x6d, 0x00, 0x00, 0x00, 0x00, 0x00,
0xb6, 0xff, 0xff, 0xff, 0x00, 0x00, 0x00, 0x01, 0x14, 0x00, 0x00, 0x00,
0x14, 0x00, 0x00, 0x00, 0x04, 0x00, 0x00, 0x00, 0x00, 0x00, 0x00, 0x02,
0x28, 0x00, 0x00, 0x00, 0xcc, 0xfe, 0xff, 0xff, 0x18, 0x00, 0x00, 0x00,
0x73, 0x65, 0x71, 0x75, 0x65, 0x6e, 0x74, 0x69, 0x61, 0x6c, 0x2f, 0x66,
0x6c, 0x61, 0x74, 0x74, 0x65, 0x6e, 0x2f, 0x43, 0x6f, 0x6e, 0x73, 0x74,
0x00, 0x00, 0x00, 0x00, 0x01, 0x00, 0x00, 0x00, 0x02, 0x00, 0x00, 0x00,
0x00, 0x00, 0x16, 0x00, 0x1c, 0x00, 0x18, 0x00, 0x17, 0x00, 0x10, 0x00,
0x0c, 0x00, 0x08, 0x00, 0x00, 0x00, 0x00, 0x00, 0x00, 0x00, 0x07, 0x00,
0x16, 0x00, 0x00, 0x00, 0x00, 0x00, 0x00, 0x01, 0x14, 0x00, 0x00, 0x00,
0x14, 0x00, 0x00, 0x00, 0x03, 0x00, 0x00, 0x00, 0x00, 0x00, 0x00, 0x02,
0x34, 0x00, 0x00, 0x00, 0x2c, 0xff, 0xff, 0xff, 0x27, 0x00, 0x00, 0x00,
0x73, 0x65, 0x71, 0x75, 0x65, 0x6e, 0x74, 0x69, 0x61, 0x6c, 0x2f, 0x63,
0x6f, 0x6e, 0x76, 0x31, 0x64, 0x2f, 0x43, 0x6f, 0x6e, 0x76, 0x31, 0x44,
0x2f, 0x45, 0x78, 0x70, 0x61, 0x6e, 0x64, 0x44, 0x69, 0x6d, 0x73, 0x2f,
0x64, 0x69, 0x6d, 0x00, 0x00, 0x00, 0x00, 0x00, 0x00, 0x00, 0x16, 0x00,
0x18, 0x00, 0x14, 0x00, 0x00, 0x00, 0x10, 0x00, 0x0c, 0x00, 0x08, 0x00,
0x00, 0x00, 0x00, 0x00, 0x00, 0x00, 0x07, 0x00, 0x16, 0x00, 0x00, 0x00,
0x00, 0x00, 0x00, 0x01, 0x10, 0x00, 0x00, 0x00, 0x10, 0x00, 0x00, 0x00,
0x02, 0x00, 0x00, 0x00, 0x24, 0x00, 0x00, 0x00, 0x90, 0xff, 0xff, 0xff,
0x17, 0x00, 0x00, 0x00, 0x73, 0x65, 0x71, 0x75, 0x65, 0x6e, 0x74, 0x69,
0x61, 0x6c, 0x2f, 0x64, 0x65, 0x6e, 0x73, 0x65, 0x2f, 0x4d, 0x61, 0x74,
0x4d, 0x75, 0x6c, 0x00, 0x02, 0x00, 0x00, 0x00, 0x04, 0x00, 0x00, 0x00,
0x30, 0x00, 0x00, 0x00, 0x00, 0x00, 0x16, 0x00, 0x1c, 0x00, 0x18, 0x00,
0x00, 0x00, 0x14, 0x00, 0x10, 0x00, 0x0c, 0x00, 0x00, 0x00, 0x00, 0x00,
0x08, 0x00, 0x07, 0x00, 0x16, 0x00, 0x00, 0x00, 0x00, 0x00, 0x00, 0x01,
0x14, 0x00, 0x00, 0x00, 0x24, 0x00, 0x00, 0x00, 0x24, 0x00, 0x00, 0x00,
0x01, 0x00, 0x00, 0x00, 0x40, 0x00, 0x00, 0x00, 0x03, 0x00, 0x00, 0x00,
0xff, 0xff, 0xff, 0xff, 0x33, 0x00, 0x00, 0x00, 0x0d, 0x00, 0x00, 0x00,
0x04, 0x00, 0x04, 0x00, 0x04, 0x00, 0x00, 0x00, 0x1f, 0x00, 0x00, 0x00,
0x73, 0x65, 0x72, 0x76, 0x69, 0x6e, 0x67, 0x5f, 0x64, 0x65, 0x66, 0x61,
0x75, 0x6c, 0x74, 0x5f, 0x72, 0x65, 0x73, 0x68, 0x61, 0x70, 0x65, 0x5f,
0x69, 0x6e, 0x70, 0x75, 0x74, 0x3a, 0x30, 0x00, 0x03, 0x00, 0x00, 0x00,
0x01, 0x00, 0x00, 0x00, 0x33, 0x00, 0x00, 0x00, 0x0d, 0x00, 0x00, 0x00,
0x06, 0x00, 0x00, 0x00, 0x70, 0x00, 0x00, 0x00, 0x50, 0x00, 0x00, 0x00,
0x34, 0x00, 0x00, 0x00, 0x24, 0x00, 0x00, 0x00, 0x14, 0x00, 0x00, 0x00,
0x04, 0x00, 0x00, 0x00, 0xb4, 0xff, 0xff, 0xff, 0x19, 0x00, 0x00, 0x00,
0x00, 0x00, 0x00, 0x19, 0xc0, 0xff, 0xff, 0xff, 0x09, 0x00, 0x00, 0x00,
0x00, 0x00, 0x00, 0x09, 0xcc, 0xff, 0xff, 0xff, 0x11, 0x00, 0x00, 0x00,
0x00, 0x00, 0x00, 0x11, 0xd8, 0xff, 0xff, 0xff, 0x16, 0x00, 0x00, 0x00,
0x00, 0x00, 0x00, 0x16, 0x0c, 0x00, 0x10, 0x00, 0x0f, 0x00, 0x00, 0x00,
0x08, 0x00, 0x04, 0x00, 0x0c, 0x00, 0x00, 0x00, 0x03, 0x00, 0x00, 0x00,
0x05, 0x00, 0x00, 0x00, 0x00, 0x00, 0x00, 0x03, 0x0c, 0x00, 0x0c, 0x00,
0x0b, 0x00, 0x00, 0x00, 0x00, 0x00, 0x04, 0x00, 0x0c, 0x00, 0x00, 0x00,
0x46, 0x00, 0x00, 0x00, 0x00, 0x00, 0x00, 0x46,
};
const int model_len = 12632;
